[PAD]
[UNK]
[CLS]
[SEP]
[MASK]
!
"
$
%
&
'
(
)
*
+
,
-
.
/
0
1
2
3
4
5
6
7
8
9
:
;
=
?
A
B
C
D
E
F
G
H
I
J
K
L
M
N
O
P
Q
R
S
T
U
V
W
X
Y
Z
\
]
^
_
`
a
b
c
d
e
f
g
h
i
j
k
l
m
n
o
p
q
r
s
t
u
v
w
x
y
z
{
|
}
~
·
∼
ㄱ
ㄲ
ㄳ
ㄴ
ㄵ
ㄶ
ㄷ
ㄸ
ㄹ
ㄺ
ㄻ
ㄼ
ㄽ
ㄾ
ㄿ
ㅀ
ㅁ
ㅂ
ㅃ
ㅄ
ㅅ
ㅆ
ㅇ
ㅈ
ㅉ
ㅊ
ㅋ
ㅌ
ㅍ
ㅎ
가
각
간
갇
갈
갉
감
갑
값
갓
갔
강
갖
갗
갘
같
갚
갛
개
객
갠
갤
갬
갭
갯
갰
갱
갶
갸
갹
갼
걀
걈
걍
걑
걔
걘
거
걱
걲
건
걷
걸
걺
검
겁
겂
것
겄
겅
겆
겇
겉
겊
겋
게
겍
겐
겔
겜
겝
겟
겠
겡
겨
격
겪
견
겯
결
겸
겹
겻
겼
경
겿
곁
곂
계
곈
곌
곗
곘
곙
고
곡
곤
곧
골
곪
곬
곯
곰
곱
곲
곳
공
곶
곷
과
곽
관
괂
괄
괌
괏
광
괒
괕
괗
괘
괜
괭
괴
괵
괸
괼
굄
굇
굉
교
굑
굔
굘
굣
굥
굦
구
국
군
굳
굴
굵
굶
굼
굽
굿
궁
궂
궃
궅
궇
궈
궉
권
궎
궐
궘
궜
궝
궤
궨
궬
궴
궷
귀
귁
귄
귈
귐
귑
귓
규
귝
균
귤
귬
그
극
근
귿
글
긁
금
급
긋
긍
긑
긔
긘
긜
기
긱
긴
긷
길
긾
김
깁
깂
깃
깄
깅
깆
깉
깊
까
깍
깎
깐
깓
깔
깖
깜
깝
깟
깠
깡
깢
깥
깨
깬
깰
깸
깹
깻
깼
깽
꺄
꺅
꺌
꺠
꺼
꺽
꺾
껀
껄
껌
껍
껏
껐
껑
께
껙
껜
껠
껩
껫
껭
껴
껶
껸
껼
꼇
꼈
꼍
꼐
꼬
꼭
꼮
꼰
꼳
꼴
꼼
꼽
꼿
꽁
꽂
꽃
꽅
꽆
꽈
꽉
꽌
꽐
꽛
꽝
꽤
꽥
꽦
꽹
꾀
꾄
꾈
꾐
꾕
꾜
꾸
꾹
꾼
꾿
꿀
꿇
꿈
꿉
꿋
꿍
꿎
꿏
꿔
꿕
꿘
꿧
꿨
꿩
꿰
꿴
꿸
뀀
뀌
뀍
뀐
뀔
뀜
뀝
뀨
끄
끈
끊
끌
끎
끓
끔
끕
끗
끙
끝
끟
끼
끽
낀
낄
낌
낍
낏
낑
나
낙
낚
낛
난
낟
날
낡
낢
낧
남
납
낫
났
낭
낮
낯
낱
낳
내
낵
낸
낼
냄
냅
냇
냈
냉
냐
냑
냔
냘
냠
냣
냤
냥
냬
냼
넀
너
넉
넋
넌
넎
넏
널
넑
넒
넓
넖
넗
넘
넙
넛
넜
넝
넞
넡
넢
넣
네
넥
넨
넬
넴
넵
넶
넷
넸
넹
녀
녁
년
녅
녈
녋
념
녑
녓
녔
녕
녘
녙
녜
녝
녠
녤
녬
노
녹
논
놀
놄
놈
놉
놋
농
높
놓
놔
놘
놨
놩
놰
뇌
뇍
뇐
뇓
뇔
뇜
뇨
뇩
뇬
뇰
뇸
뇻
뇽
누
눅
눈
눋
눌
눔
눕
눗
눙
눞
눠
눴
눼
뉘
뉙
뉜
뉠
뉨
뉩
뉫
뉴
뉵
뉸
뉼
늄
늅
늇
늉
느
늑
늒
는
늕
늗
늘
늙
늠
늡
늣
능
늦
늨
늩
늪
늬
늰
늴
늿
니
닉
닌
닐
님
닙
닛
닜
닝
닞
닠
닢
다
닥
닦
단
닫
달
닭
닮
닯
닳
담
답
닷
닸
당
닺
닻
닽
닿
대
댁
댄
댇
댈
댐
댑
댓
댔
댕
댚
댛
댜
댠
댤
댱
댸
더
덕
덖
던
덙
덛
덜
덝
덞
덟
덣
덤
덥
덧
덩
덫
덭
덮
데
덱
덴
델
뎀
뎁
뎃
뎅
뎌
뎐
뎝
뎠
뎡
뎦
뎨
뎬
뎰
도
독
돈
돋
돌
돍
돎
돐
돔
돕
돗
동
돚
돛
돝
돟
돠
돤
돴
돵
돼
됀
됄
됌
됍
됏
됐
되
됙
된
될
됨
됩
됫
됬
됭
됮
됴
됸
됼
둄
두
둑
둔
둗
둘
둙
둠
둡
둣
둥
둬
둴
둿
뒀
뒁
뒈
뒤
뒥
뒨
뒬
뒴
뒵
뒷
뒸
뒹
듀
듁
듄
듈
듐
듕
드
득
든
듣
들
듥
듦
듫
듬
듭
듯
등
듸
디
딕
딘
딛
딜
딤
딥
딧
딨
딩
딪
딫
따
딱
딲
딴
딷
딸
땀
땁
땃
땄
땅
땋
때
땐
땔
땜
땝
땟
땠
땡
땨
떄
떘
떙
떠
떡
떢
떤
떨
떪
떫
떯
떰
떱
떳
떴
떵
떻
떼
떽
뗀
뗄
뗏
뗐
뗑
뗬
뗴
또
똑
똔
똘
똠
똣
똥
똬
뙈
뙤
뙨
뚜
뚝
뚠
뚤
뚧
뚫
뚬
뚯
뚱
뚸
뛰
뛱
뛴
뛸
뜀
뜅
뜨
뜩
뜬
뜯
뜰
뜷
뜸
뜹
뜻
뜽
띄
띈
띌
띔
띠
띡
띤
띨
띰
띵
라
락
란
랄
람
랍
랏
랐
랑
랒
랕
랖
랗
래
랙
랜
랠
램
랩
랫
랬
랭
랱
랴
략
랸
랼
럄
럅
럇
럈
량
럐
럔
러
럭
런
럲
럴
럼
럽
럿
렀
렁
렂
렃
렆
렇
레
렉
렌
렐
렗
렘
렙
렛
렜
렝
렡
려
력
련
렬
렴
렵
렷
렸
령
례
롄
롈
롐
롓
로
록
론
롣
롤
롬
롭
롯
롱
롲
롸
롹
롼
뢀
뢉
뢨
뢰
뢱
뢴
뢸
룀
룁
룅
료
룍
룐
룔
룝
룟
룡
루
룩
룬
룯
룰
룸
룹
룻
룽
뤀
뤄
뤈
뤌
뤗
뤘
뤠
뤰
뤳
뤼
뤽
륀
륄
륌
륍
륏
륑
류
륙
륜
률
륨
륩
륭
르
륵
른
륻
를
름
릅
릇
릉
릌
릍
릎
릐
릘
릫
리
릭
린
릳
릴
림
립
릿
맀
링
맃
맄
맆
마
막
만
많
맏
말
맑
맕
맘
맙
맛
맜
망
맞
맟
맠
맡
맣
매
맥
맨
맫
맬
맴
맵
맷
맸
맹
맺
맻
맽
먀
먁
먄
먈
먕
먗
머
먹
먼
먾
멀
멂
멈
멉
멋
멍
멎
멏
멓
메
멕
멘
멜
멤
멥
멧
멨
멩
멪
며
멱
면
멸
몀
몃
몄
명
몆
몇
몌
몐
몔
모
목
몫
몬
몯
몰
몴
몸
몹
못
몽
뫁
뫄
뫔
뫙
뫼
묀
묄
묏
묑
묘
묜
묠
묫
묭
무
묵
묶
문
묺
묻
물
묽
묾
뭄
뭅
뭇
뭉
뭋
뭍
뭏
뭐
뭔
뭘
뭡
뭣
뭥
뭬
뭰
뭴
뮈
뮌
뮐
뮝
뮤
뮨
뮬
뮴
뮹
뮺
므
믁
믄
믈
믐
믓
믕
믜
미
믹
민
믾
믿
밀
밂
밈
밉
밋
밌
밍
밎
및
밑
밒
밓
바
박
밖
반
밚
받
발
밝
밞
밟
밠
밣
밤
밥
밧
밨
방
밪
밫
밬
밭
밯
배
백
밴
밷
밸
뱀
뱁
뱃
뱄
뱅
뱆
뱉
뱌
뱐
뱔
뱜
뱟
뱡
버
벅
번
벉
벋
벌
벏
범
법
벗
벙
벚
벛
베
벡
벤
벧
벨
벰
벱
벳
벴
벵
벹
벼
벽
변
별
볈
볍
볏
볐
병
볓
볕
볘
볜
볠
보
복
볶
본
볻
볼
볿
봄
봅
봇
봉
봋
봍
봐
봔
봘
봤
봥
봬
뵈
뵉
뵌
뵐
뵘
뵙
뵤
뵨
뵬
부
북
분
붇
불
붉
붏
붐
붑
붓
붕
붘
붙
붛
붜
붴
붵
붸
뷀
뷁
뷋
뷔
뷘
뷜
뷤
뷰
뷴
뷸
븀
브
븍
븐
블
븡
븥
븨
비
빅
빈
빋
빌
빍
빎
빔
빕
빗
빙
빚
빛
빝
빠
빡
빤
빨
빩
빰
빱
빳
빴
빵
빻
빼
빽
뺀
뺄
뺌
뺏
뺐
뺑
뺘
뺙
뺨
뺩
뺴
뺵
뺼
뻇
뻐
뻑
뻔
뻗
뻘
뻣
뻤
뻥
뻩
뻬
뻰
뻴
뼁
뼈
뼉
뼘
뼛
뽀
뽁
뽄
뽈
뽐
뽑
뽕
뾰
뿅
뿌
뿍
뿐
뿔
뿜
뿟
뿡
쀍
쀼
쁘
쁜
쁠
쁨
쁩
삐
삑
삔
삘
삠
삡
삣
삥
사
삭
삮
삯
산
삳
살
삵
삶
삻
삼
삽
삿
샀
상
샅
새
색
샌
샏
샐
샘
샙
샛
샜
생
샞
샤
샥
샨
샬
샴
샵
샷
샹
샾
섀
섁
섄
섈
섊
섐
섓
섕
서
석
섞
선
섡
섣
설
섥
섦
섧
섨
섬
섭
섯
섰
성
섶
섷
세
섹
센
섿
셀
셈
셉
셋
셌
셍
셑
셒
셔
셕
셖
션
셜
셤
셥
셧
셨
셩
셰
셱
셴
셸
솀
솁
솃
솅
소
속
솎
솏
손
솑
솓
솔
솜
솝
솟
송
솥
솦
솨
솬
솽
쇄
쇠
쇤
쇨
쇰
쇳
쇵
쇼
쇽
숀
숄
숌
숍
숏
숑
숔
수
숙
순
숟
술
숡
숨
숩
숫
숭
숮
숯
숱
숲
숳
숴
숸
쉅
쉈
쉉
쉐
쉑
쉔
쉘
쉡
쉣
쉥
쉬
쉭
쉰
쉴
쉼
쉽
쉿
슁
슈
슉
슌
슐
슘
슙
슛
슝
슢
스
슥
슦
슨
슬
슭
슴
습
슷
승
슼
슽
슾
싀
싁
시
식
신
싡
싣
실
싦
싨
싫
심
십
싯
싰
싱
싲
싶
싸
싹
싻
싼
싾
싿
쌀
쌈
쌉
쌋
쌌
쌍
쌓
쌔
쌕
쌘
쌤
쌩
쌰
쌴
썅
썌
써
썩
썪
썬
썰
썸
썹
썻
썼
썽
쎄
쎅
쎈
쎌
쎔
쎕
쎗
쎙
쎴
쎼
쎾
쏘
쏙
쏜
쏟
쏠
쏨
쏩
쏫
쏭
쏱
쏳
쏴
쏸
쏼
쐇
쐈
쐉
쐐
쐑
쐬
쐰
쑈
쑤
쑥
쑨
쑬
쑴
쑷
쑹
쒀
쒜
쒸
쒼
쓔
쓘
쓩
쓰
쓱
쓴
쓸
쓿
씀
씁
씃
씉
씌
씐
씜
씨
씩
씬
씰
씸
씹
씻
씼
씽
앃
아
악
안
앉
않
알
앎
앏
앓
암
압
앖
앗
았
앙
앝
앞
앟
애
액
앤
앧
앨
앰
앱
앳
앴
앵
앹
야
약
얀
얄
얅
얆
얇
얉
얊
얌
얍
얏
얐
양
얕
얖
얗
얘
얜
얠
얨
얫
얬
얭
어
억
얶
언
얹
얺
얻
얼
얽
얾
엄
업
없
엇
었
엉
엊
엌
엎
에
엑
엔
엘
엜
엠
엡
엣
엤
엥
엪
여
역
엮
연
열
엵
엶
엷
엹
염
엽
엾
엿
였
영
옂
옅
옆
옇
예
옉
옌
옐
옘
옙
옛
옜
옝
오
옥
온
올
옭
옮
옯
옰
옲
옳
옴
옵
옷
옸
옹
옺
옻
옽
와
왁
완
왈
왐
왑
왓
왔
왕
왘
왙
왜
왝
왠
왬
왯
왰
왱
외
왹
왼
욀
욈
욋
욌
욍
욎
요
욕
욘
욜
욤
욥
욧
욨
용
욯
우
욱
운
욷
울
욺
욿
움
웁
웃
웅
웆
웇
웋
워
웍
원
월
웜
웝
웟
웠
웡
웤
웨
웩
웬
웰
웸
웹
웻
웽
윁
위
윅
윈
윌
윔
윕
윗
윘
윙
윛
윟
유
육
윤
율
윰
윱
윳
융
윶
윷
으
윽
윾
은
읁
읃
을
읅
읆
읊
음
읍
읏
읐
응
읒
읓
읔
읕
읖
읗
의
읜
읠
읫
읭
이
익
인
읺
읻
일
읽
읿
잂
잃
임
입
잆
잇
있
잉
잊
잋
잌
잍
잎
잏
자
작
잓
잔
잖
잗
잘
잚
잛
잠
잡
잣
잤
장
잦
잧
잩
재
잭
잰
잴
잼
잽
잿
쟀
쟁
쟂
쟃
쟇
쟈
쟉
쟌
쟐
쟘
쟙
쟛
쟝
쟤
쟨
쟬
저
적
전
젆
젇
절
젊
젋
젏
점
접
젓
젔
정
젖
젗
젙
제
젝
젠
젣
젤
젬
젭
젯
젱
젲
젵
져
젹
젼
졀
졈
졉
졋
졌
졍
졔
졘
졜
조
족
존
졶
졷
졸
좀
좁
좃
종
좆
좇
좋
좌
좐
좔
좡
좧
좨
좽
죄
죈
죌
죔
죕
죗
죠
죡
죤
죰
죳
죵
주
죽
준
줄
줌
줍
줏
중
줒
줓
줘
줫
줬
줴
줼
쥉
쥐
쥑
쥔
쥘
쥠
쥣
쥤
쥥
쥬
쥰
쥴
쥼
즁
즈
즉
즌
즐
즘
즙
즛
증
즞
지
직
진
짇
질
짊
짐
집
짓
짔
징
짖
짙
짚
짛
짜
짝
짠
짢
짤
짥
짦
짧
짫
짬
짭
짮
짯
짰
짱
째
짹
짼
쨀
쨈
쨋
쨌
쨍
쨔
쨘
쨤
쨩
쨰
쩃
쩄
쩌
쩍
쩐
쩔
쩜
쩝
쩟
쩡
쩨
쩬
쩰
쩸
쩻
쩽
쪄
쪗
쪘
쪼
쪽
쫀
쫃
쫄
쫌
쫍
쫏
쫑
쫒
쫓
쫗
쫙
쫜
쬐
쬔
쬘
쬠
쬬
쬼
쭈
쭉
쭌
쭐
쭘
쭙
쭝
쭤
쮜
쮠
쮸
쯊
쯔
쯕
쯘
쯤
쯧
쯩
찌
찍
찎
찐
찔
찜
찝
찟
찡
찢
찣
찧
차
착
찬
찮
찯
찰
찱
참
찹
찻
찼
창
찾
찿
챂
채
책
챈
챌
챔
챕
챗
챘
챙
챠
챡
챤
챦
챨
챰
챱
챵
처
척
천
첟
철
첨
첩
첫
첬
청
첮
첯
첲
체
첵
첸
첼
쳄
쳅
쳇
쳉
쳐
쳑
쳔
쳘
쳠
쳡
쳣
쳤
쳥
쳬
쳰
초
촉
촌
촐
촘
촙
촛
총
촣
촤
촨
촬
촹
쵀
최
쵝
쵣
쵤
쵸
쵹
쵼
춈
춉
춋
춍
추
축
춘
춛
출
춤
춥
춧
충
춭
춰
춴
췄
췅
췌
췐
췡
취
췩
췬
췰
췽
츄
츅
츈
츌
츔
츕
츙
츠
측
츤
츨
츩
츰
츳
층
츼
치
칙
친
칞
칠
칡
칢
침
칩
칫
칭
칯
칰
칲
칳
카
칵
칸
칼
캄
캅
캇
캉
캌
캎
캐
캑
캔
캘
캠
캡
캣
캤
캥
캪
캬
캰
캴
컁
컅
컈
커
컥
컨
컫
컬
컴
컵
컷
컸
컹
컽
케
켁
켄
켈
켐
켑
켓
켕
켙
켜
켠
켤
켬
켭
켯
켰
켸
켼
콀
코
콕
콘
콙
콜
콤
콥
콧
콩
콬
콭
콰
콱
콴
콸
쾀
쾁
쾃
쾅
쾌
쾍
쾡
쾨
쾩
쾬
쾰
쾻
쾽
쿄
쿈
쿌
쿙
쿠
쿡
쿤
쿨
쿰
쿱
쿳
쿵
쿸
쿹
쿼
쿽
퀀
퀄
퀍
퀏
퀘
퀜
퀠
퀩
퀫
퀭
퀴
퀵
퀸
퀼
큄
큅
큇
큉
큎
큐
큔
큘
큠
큥
크
큭
큰
클
큹
큼
큽
킁
킈
키
킥
킨
킬
킴
킵
킷
킹
타
탁
탄
탈
탉
탐
탑
탓
탔
탕
탖
탘
탙
태
택
탠
탤
탬
탭
탯
탰
탱
탶
탸
탼
턀
턔
터
턱
턴
털
텀
텁
텃
텄
텅
텉
테
텍
텐
텔
텛
템
텝
텟
텡
텥
텦
텨
텬
텼
텽
톄
톈
토
톡
톤
톨
톰
톱
톳
통
톹
톺
톼
퇀
퇌
퇘
퇴
퇸
퇼
툅
툇
툉
툐
툠
툥
투
툭
툰
툴
툼
툽
툿
퉁
퉈
퉜
퉤
튀
튁
튄
튈
튐
튕
튜
튝
튠
튤
튬
튱
트
특
튻
튼
튽
튿
틀
틂
틈
틉
틋
틍
틑
틔
티
틱
틴
틸
팀
팁
팃
팅
팈
팉
파
팍
팎
판
팑
팔
팜
팝
팟
팠
팡
팥
팦
패
팩
팬
팯
팰
팸
팹
팻
팼
팽
퍁
퍄
퍅
퍈
퍌
퍙
퍠
퍼
퍽
펀
펄
펌
펍
펏
펐
펑
페
펙
펜
펠
펨
펩
펫
펭
펲
펴
편
펼
폄
폅
폈
평
폏
폐
폔
폘
포
폭
폰
폴
폼
폽
폿
퐁
퐃
퐈
퐌
퐝
푀
푁
푄
푈
푕
표
푝
푠
푣
푤
푯
푱
푸
푹
푼
풀
풂
품
풋
풍
풔
풰
퓌
퓐
퓔
퓨
퓬
퓰
퓸
프
픈
플
픔
픕
픙
픜
픝
피
픽
핀
핃
필
핌
핍
핏
핑
핒
핔
하
학
한
핝
핟
할
핢
핥
핦
핧
함
합
핫
핬
항
핮
핲
핳
해
핵
핶
핸
핻
핼
햄
햅
햇
했
행
햊
햋
햏
햐
햑
햔
햗
햘
햝
햠
햡
햣
햤
향
햿
헀
허
헉
헌
헐
험
헙
헛
헜
헝
헤
헥
헨
헬
헰
헴
헵
헷
헸
헹
헿
혀
혁
현
혅
혈
혐
협
혓
혔
형
혜
혠
혱
호
혹
혼
혿
홀
홅
홈
홉
홋
홍
홑
화
확
환
홛
활
홤
홥
홧
황
홯
홰
홱
횃
횄
회
획
횐
횔
횝
횟
횡
횢
효
횩
횬
횰
횻
횽
후
훅
훈
훌
훍
훑
훓
훔
훕
훗
훙
훜
훝
훠
훤
훨
훵
훼
훽
휀
휄
휏
휑
휘
휙
휜
휠
휨
휩
휫
휭
휴
휼
흄
흉
흐
흑
흔
흗
흘
흙
흝
흠
흡
흥
흩
흫
희
흭
흰
흴
흼
힁
히
힉
힌
힐
힘
힙
힛
힜
힝
％
##e
##m
##b
##r
##a
##n
##l
##색
##창
##연
##t
##i
##u
##s
##z
##f
##g
##린
##고
##비
##냉
##이
##페
##르
##바
##진
##미
##d
##난
##체
##o
##c
##k
##보
##레
##상
##재
##송
##란
##대
##광
##실
##들
##다
##훈
##오
##티
##3
##5
##항
##h
##로
##줄
##무
##늬
##자
##칼
##y
##력
##정
##부
##지
##x
##v
##양
##산
##도
##유
##승
##라
##스
##텐
##향
##제
##p
##퍼
##트
##포
##드
##계
##버
##펑
##크
##추
##리
##군
##국
##0
##4
##7
##w
##프
##렌
##민
##우
##늠
##후
##루
##와
##D
##J
##틸
##칸
##T
##L
##토
##성
##떼
##새
##한
##동
##풍
##전
##차
##선
##철
##F
##C
##런
##려
##갔
##으
##나
##S
##A
##R
##원
##슈
##테
##망
##그
##사
##인
##애
##씨
##O
##I
##E
##직
##구
##꽃
##립
##적
##턴
##M
##당
##취
##근
##탑
##네
##디
##코
##령
##술
##노
##예
##8
##6
##늘
##G
##1
##2
##파
##혜
##냈
##기
##록
##판
##태
##내
##신
##징
##평
##천
##윌
##강
##소
##9
##세
##남
##길
##주
##폴
##락
##격
##아
##반
##문
##순
##언
##호
##화
##타
##누
##래
##츠
##안
##품
##존
##하
##V
##Y
##터
##U
##베
##에
##j
##행
##웅
##담
##영
##빈
##B
##결
##를
##톳
##엘
##모
##을
##준
##흔
##배
##죽
##가
##닝
##서
##니
##식
##Z
##닥
##샤
##릭
##초
##약
##용
##H
##홍
##랴
##마
##은
##수
##막
##염
##플
##렉
##면
##임
##벽
##일
##둥
##곤
##덕
##귀
##통
##러
##웠
##표
##효
##법
##메
##만
##겨
##졌
##었
##몽
##생
##회
##해
##혀
##야
##위
##되
##어
##P
##거
##목
##떡
##림
##번
##말
##피
##찰
##육
##등
##갗
##는
##궁
##혁
##N
##센
##몬
##교
##출
##운
##슨
##족
##음
##병
##장
##단
##응
##두
##석
##카
##윤
##형
##퇴
##금
##쟁
##습
##윈
##히
##곡
##명
##할
##불
##본
##시
##견
##경
##범
##룽
##희
##욱
##벨
##업
##꿨
##날
##키
##복
##채
##웨
##벼
##워
##즈
##박
##밭
##팽
##컷
##릅
##블
##의
##투
##팔
##치
##맥
##속
##손
##물
##W
##샴
##학
##흥
##룩
##덜
##흙
##걸
##균
##겐
##방
##빙
##설
##절
##너
##열
##득
##점
##핀
##공
##X
##쥔
##게
##첩
##곽
##묘
##랑
##텀
##q
##월
##살
##핵
##쓰
##년
##권
##젠
##K
##돌
##참
##규
##틀
##탈
##중
##컨
##벤
##션
##역
##콜
##밀
##온
##데
##삼
##각
##빌
##봉
##별
##현
##알
##렘
##큼
##름
##분
##긴
##머
##좌
##럿
##푸
##죄
##쇠
##람
##뷰
##엔
##둑
##량
##답
##찻
##종
##틴
##뼈
##뤘
##브
##증
##숭
##딜
##탕
##글
##돈
##잇
##값
##과
##여
##객
##흑
##늄
##즘
##쿠
##셰
##룡
##땡
##더
##매
##충
##털
##질
##싸
##녕
##조
##작
##요
##튜
##밍
##링
##섬
##간
##처
##허
##델
##없
##녀
##척
##녠
##환
##까
##발
##톱
##멧
##굴
##짐
##먹
##춤
##낚
##암
##댔
##극
##필
##엽
##져
##된
##익
##렷
##울
##청
##압
##팅
##북
##뱅
##달
##닐
##론
##랐
##관
##륙
##몹
##륵
##륜
##편
##랄
##골
##숙
##탄
##백
##낏
##뷔
##첸
##괴
##벌
##변
##패
##케
##쪽
##왔
##콩
##젓
##쳐
##커
##슬
##랜
##쿨
##친
##콤
##쌍
##집
##먼
##른
##쮸
##뚤
##휘
##닌
##딘
##켰
##며
##읍
##올
##택
##셋
##개
##협
##찬
##룹
##놀
##또
##촉
##쇄
##촌
##뒤
##접
##켕
##뜨
##쏘
##맨
##탐
##험
##뿌
##휴
##왕
##엠
##련
##던
##딕
##풀
##켓
##잔
##침
##켜
##감
##룬
##김
##킹
##저
##헌
##섭
##삭
##쉬
##갈
##납
##궤
##못
##밑
##심
##볼
##렸
##건
##폐
##뽀
##층
##획
##셀
##십
##략
##쇼
##댁
##악
##눕
##갯
##뭇
##완
##입
##샨
##낸
##홀
##쩡
##콘
##릴
##율
##류
##뇨
##축
##붙
##였
##볍
##칭
##쑹
##닭
##빅
##슴
##릿
##괘
##댐
##웃
##능
##딛
##덴
##든
##엇
##멜
##릉
##좀
##윗
##둔
##갑
##펜
##붐
##똥
##겸
##탔
##례
##멸
##클
##틱
##잡
##놈
##챈
##훙
##짓
##텔
##콧
##톤
##료
##널
##넷
##짜
##뽁
##했
##쑤
##혼
##랍
##혈
##팩
##혔
##랙
##풋
##쳤
##숑
##탱
##팀
##붓
##독
##젤
##급
##숍
##듭
##총
##덮
##힐
##렬
##Q
##솜
##함
##롤
##황
##킬
##첨
##넣
##뜰
##짝
##큰
##옥
##웰
##몸
##퉁
##꾸
##엌
##섯
##둘
##걱
##때
##폼
##멘
##쯔
##옙
##밋
##셔
##픈
##숨
##빔
##긍
##놉
##농
##뢰
##룀
##왈
##넨
##칠
##둬
##냐
##률
##롭
##힌
##킨
##외
##잿
##꺼
##겟
##롱
##있
##냄
##샬
##춰
##붕
##움
##벰
##펠
##쭤
##춘
##굿
##검
##딩
##억
##끙
##옷
##눔
##넛
##봅
##넬
##헤
##램
##낙
##쉰
##맞
##뤼
##솔
##활
##깅
##콥
##액
##롬
##합
##챘
##몰
##줌
##샘
##랫
##흐
##템
##렐
##낄
##뮤
##끄
##끔
##랭
##렀
##쌀
##켄
##잉
##측
##찌
##딤
##얼
##쩍
##닉
##잠
##얗
##슘
##빠
##곰
##캐
##넌
##옌
##엄
##댜
##착
##옹
##앙
##났
##펴
##뮨
##겼
##뇰
##폰
##낼
##떠
##톨
##잼
##책
##튼
##젯
##팥
##넥
##캣
##벅
##욕
##웍
##럼
##즌
##썽
##빛
##뉴
##탁
##봐
##죤
##깍
##낭
##깃
##떨
##냥
##팟
##묵
##띠
##꿀
##따
##윷
##싼
##텡
##엉
##겅
##퀴
##툼
##칫
##덩
##흉
##껏
##잘
##쾅
##덤
##빗
##논
##꼬
##겔
##앗
##맛
##깻
##뀔
##웬
##딸
##얌
##팡
##헥
##흘
##땅
##걀
##럭
##캔
##퀄
##흠
##잎
##엿
##쓱
##켈
##ㅋ
##텝
##륨
##끼
##흰
##퀵
##퐁
##뒹
##뿔
##눌
##콴
##쿰
##핍
##쥐
##쩔
##맬
##웽
##쥰
##싱
##읒
##껴
##폭
##믹
##귤
##렵
##샛
##넝
##얀
##럽
##셜
##념
##윽
##뇌
##홉
##톡
##녜
##릇
##써
##므
##뎬
##욘
##딱
##젝
##밤
##짱
##빡
##컬
##최
##곶
##뱀
##밝
##늑
##펙
##럴
##슐
##닛
##봄
##융
##븐
##꼴
##굉
##돼
##젬
##컵
##칙
##텍
##픽
##뤄
##맹
##푼
##큐
##쎄
##겉
##잭
##궐
##눗
##셈
##룰
##듯
##눈
##셉
##튬
##컴
##캠
##뜸
##밈
##돋
##밥
##듬
##멍
##쫀
##퓰
##쏼
##느
##갛
##확
##겁
##벗
##턱
##즙
##썩
##않
##섰
##콕
##칵
##첼
##궈
##왓
##것
##쑥
##졸
##즐
##쥣
##퓌
##툰
##씬
##챠
##덱
##듀
##받
##빤
##얄
##렛
##겊
##굼
##넜
##궜
##찜
##핥
##긋
##뀐
##놨
##돗
##꼈
##렁
##챌
##쓸
##탯
##꼼
##뱌
##끓
##앤
##퓨
##롄
##믈
##밖
##앵
##곳
##팜
##님
##꾼
##깥
##샙
##몐
##쿤
##닿
##퀼
##괄
##벡
##삿
##갓
##솽
##펀
##툴
##탤
##싹
##짰
##쥬
##뀜
##빼
##쾰
##돔
##뻐
##껫
##옴
##좋
##핏
##츄
##촐
##쏭
##욜
##곱
##싯
##꿈
##쾨
##ㅌ
##녘
##넘
##뉘
##뎅
##튱
##깨
##쉐
##흡
##녹
##줘
##횡
##탠
##뚱
##같
##셴
##킴
##펄
##뚝
##땀
##힘
##힙
##룸
##힝
##깝
##뮬
##렝
##랬
##낮
##쌈
##찍
##뎠
##햇
##딴
##닙
##딪
##낀
##삽
##툭
##튀
##꿔
##맴
##촨
##휼
##벙
##캡
##댠
##윙
##헬
##듐
##듁
##챙
##늪
##쿄
##샌
##끈
##냇
##콸
##뎃
##슝
##핑
##륭
##맣
##특
##췌
##깔
##빵
##녁
##헐
##윅
##왜
##셸
##쌓
##놓
##튄
##픕
##놔
##댕
##았
##껄
##팠
##퀘
##톰
##쩌
##륄
##멀
##맵
##깽
##덥
##찼
##뵤
##튠
##빳
##쩨
##젱
##녤
##캅
##옮
##떤
##꽁
##앨
##눙
##둣
##콰
##듈
##밴
##찾
##댓
##컹
##엣
##끽
##갖
##닷
##멩
##캘
##앉
##녔
##밟
##뇓
##꽝
##갱
##뫼
##빰
##썼
##벚
##킥
##샵
##됭
##샹
##텁
##넉
##롯
##렴
##쿼
##ㅍ
##ㅆ
##휠
##춧
##킵
##쾌
##좆
##뻘
##겋
##냔
##쥉
##틈
##뷸
##묻
##펌
##뮈
##돛
##낫
##쉴
##뛰
##맷
##즉
##쁠
##혹
##높
##뗄
##훼
##앳
##껍
##쌰
##냠
##쭉
##뜻
##랏
##좇
##뭄
##째
##렇
##칩
##빚
##뵈
##욤
##샐
##굄
##놘
##딧
##똑
##앞
##낵
##죠
##셨
##끝
##뚜
##렂
##끌
##숴
##뽑
##쁜
##펭
##옵
##뻬
##꽂
##햄
##촬
##냅
##샷
##랖
##팍
##텅
##슷
##겹
##캉
##냘
##쭝
##댄
##꿍
##쁨
##뎁
##굽
##맘
##쌋
##엡
##꾹
##쪼
##쪄
##댈
##씸
##씀
##섀
##엾
##깊
##쵸
##밧
##쌘
##젼
##츰
##븀
##헹
##멤
##맸
##귈
##쥘
##삐
##힉
##큘
##멕
##낌
##쫙
##틔
##벳
##쳅
##흫
##훔
##믜
##웁
##큭
##얏
##쭈
##먁
##뢴
##큄
##잣
##탸
##멓
##싣
##픔
##톈
##둠
##숲
##뎀
##껑
##핸
##찮
##밸
##컥
##뇽
##푹
##릎
##킷
##쓴
##ㅇ
##펩
##츨
##혐
##뮐
##궂
##숀
##뀍
##썸
##퉈
##쟈
##랸
##떻
##먕
##옻
##숏
##렙
##딥
##텟
##찐
##뱃
##뢸
##훌
##줬
##갚
##푀
##젖
##헴
##맡
##섞
##돤
##찔
##뜬
##벵
##랠
##삯
##꼽
##볜
##슥
##텨
##씻
##팬
##홈
##께
##닫
##끗
##얘
##퍅
##팝
##룻
##넹
##좡
##볶
##놋
##퀜
##췄
##엥
##썰
##줏
##퍽
##쉘
##캥
##츤
##샥
##솁
##옐
##눠
##쿱
##랩
##멱
##뚠
##헵
##얹
##뮴
##퀸
##쁘
##끎
##봤
##넓
##듣
##슌
##똘
##뿜
##헨
##녓
##됨
##꺽
##믐
##봇
##랗
##앰
##캄
##섹
##잖
##펐
##꿩
##뱉
##뀌
##돵
##썬
##믄
##뭉
##퓸
##첵
##몫
##씌
##쥥
##찡
##넴
##녑
##뽕
##깁
##깡
##솝
##뽈
##눅
##솟
##꼿
##갤
##펫
##갸
##짖
##퀀
##핌
##뒀
##땜
##윳
##짤
##뵙
##팁
##둡
##겜
##갰
##쨌
##뾰
##쫓
##쳇
##뿐
##줴
##숫
##뎐
##탓
##쭐
##뎌
##훅
##좔
##쉔
##쉥
##뜩
##짭
##톄
##윔
##듦
##촘
##쿡
##윰
##솥
##쎌
##멈
##챗
##홧
##곈
##볏
##묄
##캇
##틍
##툽
##훠
##짚
##볘
##쿵
##짇
##낑
##껌
##읭
##셌
##챔
##씽
##숯
##곬
##괼
##텃
##옛
##볐
##펍
##귄
##슛
##죌
##졔
##홋
##릐
##뱐
##튿
##썹
##떵
##엎
##땐
##퍄
##줓
##웹
##뻑
##좁
##빨
##츈
##깜
##팰
##훤
##엑
##낳
##귿
##폘
##꽌
##앓
##겆
##팎
##볕
##뮌
##낱
##흗
##짬
##줍
##뤠
##꼭
##괭
##퉜
##맑
##섶
##뻤
##튕
##넙
##붉
##뻗
##굣
##욋
##뺏
##먀
##쭙
##룅
##쭘
##왱
##찟
##곧
##떴
##쬐
##냑
##빴
##꺅
##엮
##쫜
##돕
##빽
##멋
##셤
##옇
##쩝
##챦
##먄
##륀
##챡
##햏
##늿
##ㅈ
##꼰
##짠
##챤
##롼
##뉜
##맺
##탬
##땃
##뮺
##덫
##왁
##쏠
##꺄
##꿋
##됴
##쏙
##ㄱ
##뤽
##닮
##옘
##옆
##싀
##튽
##쌌
##뒷
##넵
##뻔
##덟
##뒬
##댛
##탭
##댑
##깐
##쁩
##짼
##솬
##쉑
##뿡
##컫
##떽
##눴
##ㄴ
##ㅀ
##ㄹ
##훗
##쩜
##찝
##찧
##꿉
##힛
##팻
##쉽
##헛
##늦
##쉭
##밌
##쩐
##쑨
##젹
##얬
##폈
##쉼
##씹
##큉
##쪘
##겿
##읗
##섦
##뻣
##뛸
##왐
##칡
##쥠
##겠
##큔
##숩
##셍
##퇘
##캬
##켠
##셱
##켐
##덧
##될
##삑
##뼛
##쨩
##짹
##읃
##뺨
##깎
##뉨
##꿘
##뇬
##갠
##뺑
##홑
##퓔
##늉
##헝
##킁
##팼
##ㅅ
##잌
##툉
##쟌
##숟
##깰
##떳
##읏
##쯤
##팸
##띤
##뜯
##휭
##ㅂ
##쉈
##쯩
##쌔
##꿰
##젭
##잽
##붑
##얽
##룝
##넸
##읜
##곗
##꽹
##땠
##륑
##뻥
##뎨
##헿
##풂
##씩
##듸
##슭
##뺀
##쾃
##ㄷ
##땄
##뭐
##췩
##뎡
##휙
##왑
##슽
##ㅎ
##흄
##켸
##긔
##굳
##귓
##탰
##ㅊ
##뺐
##읽
##읠
##폿
##잰
##묜
##빕
##딨
##밉
##삣
##뼉
##많
##쫑
##굘
##닳
##녈
##몇
##됸
##웸
##닦
##꾿
##짢
##쳉
##솨
##쟝
##깟
##켑
##쨍
##핼
##햐
##샜
##읓
##훑
##홰
##짧
##훨
##읖
##쾡
##탉
##켁
##푯
##뙈
##겡
##잍
##뚫
##렡
##뛴
##횔
##꼍
##껙
##닯
##툠
##몔
##웡
##멨
##및
##묺
##홥
##붛
##츔
##뉼
##툐
##횟
##햅
##맙
##뚬
##횻
##댱
##샅
##ㅃ
##틋
##헉
##껀
##꽈
##꽥
##뵌
##뿍
##숱
##읔
##섕
##헷
##껸
##셧
##귐
##륍
##죈
##쯕
##쇳
##촛
##낯
##솎
##깬
##뺄
##얇
##쑈
##뗐
##텄
##똔
##읕
##씃
##곯
##폄
##쨋
##꿏
##쌩
##뱡
##늡
##뵐
##삔
##웜
##켤
##꽐
##횬
##뀝
##쬘
##얭
##봬
##띔
##띄
##뇸
##꾀
##숄
##잋
##텽
##늙
##굵
##텼
##뉩
##ㅁ
##룔
##촙
##덞
##쀼
##쏸
##곁
##푈
##큅
##늕
##봍
##윕
##춉
##ㄲ
##싶
##숌
##띨
##갬
##몆
##랒
##꼐
##팃
##뺩
##쌕
##펨
##썻
##퇀
##믓
##좐
##쬔
##몄
##뗑
##낍
##슙
##뉠
##쫄
##귬
##푱
##꿎
##뒨
##혓
##뷘
##큇
##쟉
##퐝
##뷴
##뇐
##웻
##끊
##옳
##뺌
##맏
##띵
##캑
##뿅
##쎈
##뷜
##걷
##핫
##쳔
##앴
##핳
##횢
##큥
으로
에서
19
20
한다
201
200
대한
10
까지
에게
으며
된다
지만
부터
##or
사용
라고
라는
18
199
일본
이후
미국
면서
12
는데
##er
##으며
지역
##민국
##00
11
다음
대한민국
##la
경기
대학
##리아
그리
프로
다른
##on
198
다고
##스트
위해
때문
시작
그러
따라
##in
한국
사람
15
함께
또한
16
##an
선수
사이
경우
현재
세계
영화
자신
위치
for
당시
##mu
이름
하나
기록
조선
197
17
국가
##시아
##mula
또는
formula
가장
다는
가지
이나
##en
그러나
활동
##ar
##주의
리그
196
14
프랑
의해
##레이
대표
학교
##부터
그리고
##으나
통해
연구
13
194
##at
서울
사회
다시
도시
##al
아니
만들
보다
프랑스
중국
시즌
##es
##학교
##랜드
영국
정부
시대
독일
는다
포함
여러
으나
대해
195
다가
로서
##ic
전쟁
위원
아이
문화
인구
축구
대회
모두
가능
km
이상
모든
방송
대학교
정치
지방
동안
일부
문제
처음
개발
이루
시간
감독
30
알려
##is
구성
였으며
##he
위한
이용
사건
국제
세기
일반
##라이
존재
제작
193
정도
##it
운동
게임
교육
중심
##니아
음악
기준
작품
역사
2010
주장
나타
배우
민주
관계
##화국
gt
거나
25
##통령
##리스
이러
##부분
기술
lt
선거
##이스
경제
전투
했으며
발표
새로
192
발견
시키
들어
##ou
아들
로부터
공격
도록
대통령
의미
21
##le
##ion
대부분
우승
프로그
라이
올림
중앙
지원
과정
##지만
##란드
부분
결과
영향
최초
유럽
##리카
2008
특히
##el
독립
2011
관련
191
인민
2012
##나라
설립
2007
하지만
진행
자유
어서
##버지
그녀
사망
상태
올림픽
구조
2009
제국
형태
고등
같이
결정
이전
24
나라
22
23
참여
러시아
##우스
설치
발생
사실
일어
이탈
다양
행정
##re
주로
태어
발매
프로그램
으로서
2014
##디오
생각
상대
위원회
스타
##어진
##om
이것
인해
필요
새로운
소속
##ol
관리
철도
로마
타이
계획
성공
기관
고려
2013
운영
정보
지정
생산
이탈리아
여성
등장
조직
26
중요
계속
참가
여자
매우
해서
대전
과학
##us
2006
국민
데뷔
데이
시스
28
##et
##프트
000
앨범
아버지
자리
##르크
출신
해당
##리즈
사업
27
##as
레이
##스터
바이
##남도
최고
##라마
##am
방법
후보
기원
##ing
발전
차지
처럼
그리스
##FA
결국
##il
100
2016
가리
보이
주요
따르
##이션
돌아
2018
##한다
회사
아래
월드
그룹
한편
시리즈
였으나
인도
##비아
전체
##ch
마이
생활
2015
연합
이어
내용
못하
이유
많이
##운데
인터
29
민족
음반
드라마
초등
시스템
우리
##레스
지구
출연
방식
항공
가운데
##ro
유명
##이트
고등학교
군사
인간
공식
스페
제도
수상
대신
190
2005
##nd
2017
시기
조사
기업
제공
초기
거의
2000
역할
으로써
반대
2004
대상
##북도
표현
각각
현대
언어
승리
특별
기능
##인다
의원
열린
이르
평가
연결
##비스
여기
따라서
31
모습
##BS
출전
해야
교회
노동
마지
이미
유지
으로부터
##20
수도
프리
가진
동시
공화국
##야기
시켰
##스크
자연
규모
목적
경상
계약
정의
이론
전문
마지막
임명
브라
##머니
단체
불리
50
서로
인정
산업
지금
시장
of
직접
기간
지도
정책
부산
공간
공개
##ed
야구
자동
결혼
개인
했으나
이야기
알려져
오스트
상황
2002
아르
시절
개최
국회
##ac
진출
건설
거리
으면
경찰
추가
플레이
부르
##이지
TV
노래
FC
활약
가수
공동
변경
모델
사상
건물
교수
##학자
의하
2019
##ent
중학교
졸업
스페인
##id
역시
완전
관한
기원전
형성
인물
마을
2003
학생
분류
비롯
노선
40
그것
실제
##nt
보통
변화
##킨다
보여
##대로
소설
우주
189
인민공
##os
인민공화국
##른다
##니다
중화
##이드
속하
##ur
지하
거쳐
##역시
요구
##운드
기본
##르트
사랑
실시
보호
일으
최대
없이
##ig
그래
서비스
판매
달리
지나
만든
##프리카
세력
다이
지지
The
원래
자기
전국
##ad
태어났
나이
소련
어떤
##mp
승강
전자
모양
황제
위하
태양
도쿄
싱글
운행
차이
경기도
명칭
비판
전통
아닌
기반
전기
구역
통합
제외
1990
##od
##어져
못했
밴드
한다는
2001
컴퓨
분야
##ation
혹은
##iv
전라
회의
나오
##ot
목록
자료
므로
기타
##의원
월드컵
작용
종교
방향
기념
의한
부대
수행
소프트
공연
애니
남쪽
환경
클럽
##로스
나가
대해서
바로
##자리
북쪽
승강장
도입
특징
교통
동물
이동
기독
텔레
이때
예술
센터
선정
##BC
##린다
작업
연방
능력
열차
시설
기존
비슷
##너지
##어지
##스탄
형식
의회
지휘
설명
남자
도로
컴퓨터
the
문학
##비전
St
##스타
FI
왕국
군대
국내
##러스
어머니
높이
면적
과거
기독교
혁명
차량
유일
사무
이끌
지배
마다
행위
작가
사고
역임
이적
챔피
남부
##나다
뉴욕
확인
충청
영어
마음
행동
이사
동일
적용
동쪽
가족
##ec
보내
인기
출시
담당
증가
작곡
데이터
민주주의
대구
사단
오늘
주변
메이
1999
효과
협회
##um
##st
비교
##ut
공산
##ra
피해
정당
구간
장관
대사
물리
추정
베이
1980
방영
스포
##메이션
세포
시켜
서쪽
1998
어린
속도
##므로
조지
##트남
조건
육군
상당
공사
가까
차례
크기
스트
에너지
대하
연기
##카이
예정
시민
실패
2020
캐나다
##웨어
자체
한다고
자치
올라
체제
마리
어느
종류
개념
다르
애니메이션
주도
버전
188
이런
고대
##진다
국립
FIFA
마르
위해서
북부
##글랜드
##ir
##em
##ia
연속
건축
선언
작전
특정
##가지
조약
선택
500
성장
1997
인천
버스
60
내부
규정
디자
##버스
35
1995
헌법
##거리
포르
1996
텔레비전
수록
명령
함수
물질
32
부족
지냈
페르
부문
평균
단계
잉글랜드
최종
멤버
챔피언
반응
대체
아시아
연대
결승
최근
##라스
걸쳐
이라
해군
##시마
설계
일어나
표준
는지
개혁
관할
달러
지명
통일
Ch
공항
출판
체계
##op
##루스
머리
##im
정신
cm
##난다
보인다
##드리
당하
북한
내려
비행
법원
mm
베트남
선발
시험
1994
현상
더욱
친구
크리스
##렇게
밝혔
부상
자동차
인지
문자
강화
분리
조정
개월
연주
실험
##oc
##리지
배치
1992
하이
amp
##광역시
선출
공원
대중
공립
편성
재판
가치
뛰어
처리
장치
의사
신라
##ow
장군
##일랜드
##메리카
스테
스포츠
들어가
##스코
고자
어려
광주
관심
점령
어야
##ers
##나무
1991
주인
나무
소비
분석
통신
제품
가문
베르
유사
불교
거주
가리킨다
외국
그림
획득
후반
소유
사령
엔진
파리
##야마
확장
1970
70
정규
일종
결합
도움
집단
##ag
고속
기사
본선
원자
##디어
##un
UE
다면
요소
구분
언론
주민
정권
투표
네덜
네덜란드
##리오
1993
1988
만나
이해
안정
오늘날
186
##아들
UEFA
만화
신문
려고
인데
비해
파이
로스
지속
요시
교황
정확
민주당
나타나
##ay
시도
목표
에스
길이
치료
언급
행사
준비
구단
왕조
80
학자
대로
폴란드
사진
일제
국회의원
불구
아프리카
방문
이곳
도서
##특별
보도
##젝트
187
1989
아직
동맹
통치
부인
##스턴
정리
수준
예선
그런
책임
평화
##인트
인터넷
폐지
드러
디자인
##웨이
종합
##레일
추진
제한
36
경영
성적
원인
거두
##ul
문서
표기
45
가정
런던
방어
제조
올랐
비디오
려는
투수
통과
KBS
나온
세워
제주
##스로
부여
서부
영역
아마
동부
##ce
경험
입장
1960
회장
행성
유래
소재
300
더불
유전
##요일
33
해석
식민
알려진
아일랜드
아서
이듬
총리
하계
노르
용어
무기
연맹
득점
라디오
가르
집합
경계
사라
정상
프로젝트
입단
발달
트리
훈련
미사
요리
개봉
프레
병원
바르
카드
박물
완전히
움직
생물
경쟁
널리
##리트
##톨릭
자주
이듬해
노력
정식
소리
바탕
법률
등록
야마
##메달
슈퍼
여겨
오른
영토
오르
부정
파괴
##ist
수학
제안
스웨
금지
은퇴
지대
수용
차원
여객
##머지
인사
나머지
요청
박사
전해
##ri
연구소
가톨릭
박물관
당했
은행
##라인
지난
아카
38
경기장
외교
그대로
업무
카운
알렉
인식
미술
오래
마찬
마찬가지
계열
무대
식물
조각
##ov
로써
##주시
기계
찾아
바뀌
스스로
유로
발사
스웨덴
결성
실제로
브라질
여행
다수
쓰이
1987
총선
검사
히로
강원
기자
소프트웨어
복귀
관측
철학
패배
의식
임시
##토리
기구
##레일리아
보수
1986
상호
반면
받아들
##부르크
이외
주제
마이크
강력
파일
삼성
스위
캐릭
기초
여름
형제
유니
초대
화학
세대
표시
거부
먼저
성격
단순
##사카
접근
##베이
근처
오스
회원
남성
다만
개국
장소
무역
번호
중간
##특별시
##워드
바다
공작
캐릭터
논란
내각
다리
밝혀
##모토
만큼
서울특별시
스코
아시
뉴스
그린
지도자
권력
주연
해결
나타내
지상
1945
디지
##시코
지적
케이
경상북도
코드
##and
오스트레일리아
90
##나이
34
##무원
일정
단어
번역
차트
조성
##ie
1984
단위
하루
##og
##NA
순위
아무
##th
떨어진
서식
안전
가져
공장
##est
기여
지하철
윌리
활용
##임스
전시
1985
수사
발행
주의
오스트리아
도착
크로
관광
보존
해안
귀족
연장
수많
중단
협력
시행
당선
네트
죽음
지식
##니스
묘사
##ard
##티아
1950
반란
유대
도서관
48
제시
바꾸
보유
통하
성립
에이
본부
이스
세르
특수
으므로
떠나
분포
후기
은하
오브
##워크
음력
확대
##ap
##50
카이
파견
##회사
in
장애
계산
천황
원소
윈도
1982
##간다
포르투
##가와
유리
이루어진
필리
세상
세웠
이렇게
동생
영상
시티
##ct
상징
사이트
근거
투자
생명
스튜
##가리
위험
주식
위기
체포
시청
제기
학위
이하
타이틀
나중
경상남도
소수
##모리
식민지
37
완성
디지털
극장
##트로
기획
1983
달성
유형
생성
전차
뮤직
카운티
대응
정치인
##소년
미래
전략
개통
개정
##버트
##트리
상업
설정
윌리엄
계승
체결
촬영
보였
태평
코치
양식
질량
측정
승격
##어졌
부른다
MBC
and
그렇
교체
올리
이슬
수비
##ess
관찰
##철도
400
아키
천문
멕시코
따른
아내
39
감소
몇몇
습니다
취임
궤도
연극
대륙
스키
근무
##ine
직후
##교회
주인공
의견
미사일
소송
즉위
얼마
남북
미군
판단
전라남도
울산
다루
이주
채널
이라고
##아시아
엘리
##스카
종목
해외
홈런
특성
##ab
신경
음식
제정
오후
물론
공부
41
권리
##ity
가리키
전환
장기
계기
본래
시내
비트
##스티
전달
거대
이집
이집트
강한
라인
소장
##라도
으면서
각종
예수
군인
마사
사회주의
자본
출생
1981
충돌
지위
범죄
다카
비밀
이래
주목
자격
작성
못한
소개
수정
종료
만드
네트워크
청년
농업
체육
##지션
문화재
##티나
##art
충청남도
가입
배경
명예
국왕
1979
개선
실행
원정
##러운
신호
옮겨
##리포
공급
##코드
##ep
##동안
인근
전사
집중
나누
병력
##av
II
인디
입학
세종
바람
기후
발매되
가까운
고구
변호
시위
만약
##ell
합류
베네
비용
국경
지내
에드
42
##전히
무장
보냈
##ak
강원도
공군
마치
제거
해방
너무
저항
포르투갈
##미널
둘러
약간
1973
##베르
후쿠
184
표면
Al
도중
인수
건너
학년
그려
##소리
병사
지점
오사카
이루어져
이슬람
##어나
이란
최소
플로
외부
64
제임스
##ter
갖추
홍콩
이승
부모
터미널
결승전
금융
##고리
무렵
다니
세이
1972
그해
##igh
아우
학문
신학
가격
측면
강조
마리아
##마크
이번
선거구
##리학
밀도
정착
##ud
겨울
회전
증명
나왔
##피아
국방
마련
터키
43
노동자
##스키
양자
##로나
일어난
등급
##ip
de
공업
광고
합병
55
핀란드
제목
자원
라운드
전반
명단
##ang
블랙
루이
공주
185
강의
민간
##테르
1974
고전
가졌
대학원
혐의
시킨
##ill
헝가리
기회
고종
성우
수입
후지
항상
##아가
캘리포
녹음
불러
알렉산
스티
st
충분
편집
마쓰
고구려
피아
보고
허용
##if
미디어
출발
캘리포니아
오리
전하
건강
통제
스위스
위성
인한
엔터
장면
매년
전선
##도로
그래서
재산
가스
##오카
위원장
범위
양성
전역
항성
180
잡지
1963
원칙
폭발
전력
스리
온도
##ue
근대
##로드
동계
불린다
##ob
적극
재직
##래프트
의학
모리
개편
대수
##원군
183
##마스
재정
바이러스
여전히
1978
거래
51
업체
상하
구축
44
##CA
유도
회복
불렀
시인
남편
수단
##디아
1976
붕괴
경력
계급
클라
태평양
교사
수립
진다
증거
##데미
군주
확보
강제
안드
분자
동료
지진
군단
장비
라면
75
전개
평양
라이브
이미지
공산당
대대
공공
신화
현실
1971
47
In
인하
버리
Th
아주
승인
점차
##니어
기지
##ub
얼굴
합의
아카데미
해도
다섯
카르
세우
논문
모스크
46
대장
수원
떨어져
만족
꼬리
아름
1975
미치
경주
위협
불가
##운동
##아프리카
남동
##ev
임무
1940
1948
검찰
라틴
1968
편입
##ount
채택
아라
조치
토지
아랍
확실
부근
1969
##주교
##레이드
귀국
일원
환자
##all
기억
몽골
성인
##FC
철도역
라며
하늘
##각형
보장
1920
진화
조합
대기
장식
서양
나폴
카메
불과
##ne
열렸
규칙
이제
대형
해체
아야
탑재
가로
우수
세운
잠시
삼국
나카
만주
선생
침공
##틀랜드
에게서
청나라
메이저
##타인
##키아
고양
1977
종이
아메리카
태풍
##eg
스튜디오
토론
독자
단지
신설
##일러
반도
나치
##우드
모르
의료
덴마크
포지션
의해서
##문화
150
중심지
연산
아나
법인
종종
선조
자금
소년
법칙
강점
##라노
재단
본관
경향
알리
스피
일어났
기대
##에르
##이크
보병
산맥
왕위
1930
나뉘
##ice
##낸다
순서
뛰어난
간주
##어들
확정
54
향상
우선
유학
게이
인조
스파
사후
역대
육상
##룬다
그곳
성과
Un
이끄
감염
선고
비율
수출
투어
가사
대립
사전
전화
1964
신앙
##ran
지시
1967
어떻
CD
이스라
오픈
빠르
헤이
1962
사례
카를
##our
구체
##하라
LG
김정
준다
태어난
했었
1946
고문
살해
##ian
레코드
저장
나와
동음
알려졌
갖춘
쓰인다
에선
유엔
181
이스라엘
##없이
대항
53
청소년
전라북도
아파
이성
브랜드
애플
##배우
복잡
##ive
##백질
##오스
예상
본격
##ST
보안
##다이
공학
자세
##te
52
광역시
차별
이루어지
암살
흔히
탄생
시각
보급
아시안
대비
베이스
##고기
솔로
초반
##이의
##ong
179
1949
조금
동음이의
##리스트
브리
##싱턴
스타일
클래
##오프
필리핀
##준다
##ern
방면
상품
입자
프란
통한
##요시
아르헨
어린이
전설
후손
지키
공기
오토
태어나
온라인
여객철도
고정
운전
노스
형사
판결
시킬
노예
1965
br
공유
##ss
##퍼스
변호사
동의
참석
올렸
성질
아르헨티나
00
공무원
우크
##정부
##해졌
SBS
##누스
단일
창설
의장
##레이션
원작
인상
핵심
##ry
##산시
출장
윈도우
전용
전혀
##반도
##아메리카
물러
아스
에피
중화민국
비난
연고
헨리
중반
단백질
창조
장착
협상
이익
마크
Mar
1961
하드
강점기
##바이
중부
##네스
글로
오른쪽
스케
포도
시킨다
한때
##보드
사항
오전
말기
49
에어
스크
별도
스코틀랜드
슬로
kg
박정
협정
집행
넘어
건국
##ert
56
노르웨이
코스
왼쪽
1966
북동
##셔널
베이징
사법
##ge
Ar
워싱턴
의무
열리
성당
아침
권한
##퍼드
메시
한자
수여
서기
투입
##일보
중세
본인
유적
##사키
##의회
보험
직원
스카
주기
항복
지닌
오히
플라
해양
교토
저지
##다가
65
경성
바라
숫자
앞서
주위
인권
원주
연합군
구속
##ea
잘못
한국어
보조
추산
플랫
선수단
호텔
고향
##나이티
베를
##트라
돌아가
플레이어
레드
절대
오랜
추측
명성
유나이티
우스
전철
전후
전공
##비드
함대
##OS
정비
강하
소식
정복
교류
보스
건조
갈등
붙여
저서
인공
공산주의
##네시아
사령관
출마
인가
일으키
생겨
##무라
##터리
플레이오프
공포
세인트
이기
운용
생기
마침
PC
##ib
사태
##ight
보컬
##BO
임금
고유
##리어
58
백제
북서
아미
밖에
인류
600
61
Count
부장
##ect
로드
불렸
원리
구별
김영
##카와
모스크바
통계
요새
159
라도
복합
관료
합성
흡수
취급
오히려
들어갔
지니
마이클
Com
창립
헤르
어떻게
개시
장악
신성
농민
예산
투쟁
축제
66
##미터
요한
99
집안
무리
작곡가
천체
아테
주교
포위
논의
공화
훨씬
##ich
거절
현장
1958
아름다
멸망
영업
효율
수송
800
인정받
##소드
웨스트
유전자
US
마드리
160
##ort
이승만
산하
심각
사령부
##ew
파크
목사
##슬라
88
반복
1941
Sh
성능
마드리드
로버트
제자
##기에
시점
십자
영화제
노부
방출
태국
어렵
금메달
내렸
1956
동원
사우
화물
68
미니
그리스도
안타
일대
충청북도
활발
건립
감정
통해서
##ain
도구
블루
해상
##정식
##데스
소스
전부
코미
인종
##다리
박쥐
뜻한다
군수
하우스
소녀
연재
##도르
파라
##머스
주관
1944
포기
출입
##저우
브레
항공기
내리
약속
##up
머물
임의
178
간단
일치
영입
제어
앞두
김일
학부
An
해졌
##시스
정원
제출
프라
하위
##세이
##서트
57
대화
중대
페이
백작
디스
63
##성군
이어지
자라
Sp
성경
효소
주식회사
##천시
고용
일본군
##자기
##메리
분쟁
연관
항구
논쟁
미드
##천군
인터뷰
통상
다운
부활
에도
##문화재
견해
학회
상당히
취득
1947
벨기에
자이
주전
##에트
##ord
##ant
국장
직전
##카이도
정지
지낸
비록
죽이
응용
이른
82
넓이
교환
##타르
장교
1939
더라도
롯데
1959
주택
아사
본사
이민
##ON
루트
그런데
무엇
금속
활성
편지
프로세
알아
Pro
86
##io
프리미
재료
서원
선교
지붕
반발
고도
논리
학술
취하
베를린
접하
소방
신체
County
요코
철수
빠른
히데
혼란
캠퍼스
##ens
학원
허가
##10
제일
방정식
신분
여부
62
##독부
승진
임대
to
주간
니콜
문장
고리
일으켰
위반
일식
서버
1919
사장
장수
흐르
1000
모드
속한다
콘서트
거기
본명
예비
전주
##라드
직업
판서
학습
후원
98
상승
트랙
정체
코미디
이치
SK
떠났
채용
대략
카메라
유물
이중
##공항
관직
##듀서
프로듀서
FA
외국인
해산
에피소드
가을
##ly
미터
명명
##로그
학과
##리케
국무
1954
포켓
모여
화성
남서
물체
사운드
리스
터널
72
당한
실수
조작
생긴
수소
120
다스
전문가
진보
1942
개조
발언
엑스
친일
포트
합격
그레
농구
민법
부임
폭력
독립운동
탈출
포로
##AR
한반도
##이어
##쿠라
불상
라이트
##병대
빠져
니시
말레이
소비에트
수집
반영
보관
수술
창단
기호
현지
##방송
변환
타이완
주년
74
모아
작사
진입
로운
사립
스마
방송국
세르비아
##ok
동남
저작
신인
법정
##ys
대리
##키스탄
각본
출간
화면
1952
스미
##아버지
도달
자살
테러
스토
95
국제공항
진압
천연
##하마
Con
##AT
관점
메모리
위상
##드시
글자
##ate
감사
##oh
기도
개체
선보
공통
호수
미나
예측
살인
전파
76
베스트
도망
##ik
##노스
연안
스러운
파트
##크스
동작
사원
뉴질
뉴질랜드
훗날
브루
화산
선전
1953
식품
##ER
방지
##사스
Le
시리아
신청
이룬다
참고
불법
청구
계통
기하
방사
##uc
67
##바라
1943
73
누구
문헌
변형
벡터
연료
정기
망명
##라이나
##프리
왕자
기법
행렬
182
이뤄
1957
영향력
##ff
공정
루이스
상원
상륙
일본인
메인
반드시
심리
59
의존
##이치
갈라
교차
탈락
복무
데이비드
수리
황금
1955
포항
폴리
제대로
동성
별명
여야
오페
177
국도
판사
임진
기온
부부
서구
##에이
오스만
보낸
트랜
##바르
스럽
취소
재위
참전
탄소
연출
처형
##아티아
크로아티아
나갔
인도네시아
트라
77
뿌리
어떠
공동체
지급
배출
테이
전면
시카
절차
하나님
히트
텍사스
전동
##수록
보물
무덤
손자
트로
체코
는가
부사
리더
프랑크
물리학
뮤지
지리
득표
원년
##ast
대개
프린
압력
광장
녹색
집권
생존
의도
진주
알파
AT
콘스탄
##비치
분열
구하
오프
이시
흘러
##젤레스
좌우
##어스
분해
희망
장르
도전
포인트
고지
둘째
분할
##치아
여단
##end
풍부
해리
특이
엄청
순환
질병
파악
날개
피아노
살아
된다는
버렸
싸움
끝나
레스
시드
수영
포켓몬
71
SS
85
아파트
DNA
시조
달라
태조
노벨
로켓
맞이
프로그래
싸우
##리히
독일군
현역
##ph
달하
가상
이닝
전형
흑인
그라
남겼
빼앗
실질
인접
한계
둘러싸
유치
마시
모형
목소리
개신
타임
발음
분명
이자
기체
자녀
박정희
마법
분위
구성원
700
타격
##티브
##se
회담
등지
미국인
일찍
움직임
부진
##리노
87
보건
대법
주둔
시호
##대부
올려
조절
한정
희생
De
대공
나뉜
신뢰
매일
복지
마침내
끝난
호주
##은행
줄기
성분
이온
당초
자전
알렉산드
광복
의지
범주
##ure
1936
전신
기기
어도
화재
96
##ld
독특
스토리
조종
문명
##AS
##우리
##유럽
맞추
처벌
향해
요인
최다
나타난다
세리
##브리
그래픽
##라이언
간행
그레이
새겨
유기
입니다
You
무게
김일성
##릭스
##피스
완료
나타났
출범
충격
동아
한글
##man
플래
경로
##연히
사형
##iz
##먼트
가나
메리
변수
##학생
스탠
##다는
##포르
기둥
단독
명나라
무시
성향
숙종
1938
사실상
막부
중기
##qu
92
코르
수석
골든
사임
치러
사마
##일스
각지
그때
상위
으려
편찬
향하
##30
구원
당나라
도와
바위
##ack
크리
##더스
예전
우려
한국인
전원
리처
정하
01
교향
분기
Int
점점
서명
확률
1910
추구
##사자
함락
중력
방해
찰스
순수
구현
동기
등판
Re
부하
유행
악화
오페라
아리
에르
WW
내전
##베스
새롭
합쳐
KBO
로봇
개입
##앤젤레스
로스앤젤레스
오랫
오카
모임
아동
추천
순간
대선
마케
##ust
루스
##ind
평안
78
시상
증상
카라
##민주
연구원
##TV
도쿠
레오
레인
임기
뮤지컬
침략
##거운
한다면
##메리칸
의심
##ial
##틀러
태종
학살
마르크
언제
네이
##ock
프리미어
정수
IC
##BA
1937
신부
에드워드
스프
명확
입력
1951
홍보
양쪽
동해
영화배우
##무부
펼쳐
오랫동안
제이
완공
밝히
여론
일본어
사정
웨이
비평
91
징역
창원
복수
멀리
올해
##ae
개막
분위기
공로
공헌
모토
##디션
드라이
가와
가시
기상
AP
다케
승부
170
1932
실현
접촉
떨어지
##체스터
조별
1914
세자
총회
제사
파르
나아가
왕실
정해
81
97
지형
84
##ith
속한
출력
확산
개신교
리버
##메이
데스
원형
89
저녁
1918
아테네
작위
미야
##레옹
04
에서부터
탐사
암호
보고서
자식
동명
연평
##EC
적절
다며
나폴레옹
##이너
He
시카고
메이지
백성
##이센
AFC
근본
혼합
##투스
##에른
연간
비상
민중
진정
방위
움직이
일체
잠수
HD
th
바깥
혁신
단편
영웅
유고
가량
왕후
국정
동양
왕비
기울
176
의혹
비서
##버그
여왕
홋카이도
확립
##one
발굴
161
무사
복음
조지아
안드로
##조합
스마트
##너스
인쇄
아이돌
심사
그렇게
사자
가이
아티
태도
안동
마무
바둑
어디
가공
균형
시사
훈장
Me
공중
어깨
인증
대량
저술
IS
끝내
##마니아
164
미쓰
연예
폭탄
바이에른
1935
##텐츠
기에
##세포
나뉜다
느끼
일시
##ment
기소
병합
##의정
고속도로
경전
김성
따로
재건
69
돌아왔
거듭
지켜
##하여
듯이
##르타
##왜란
임진왜란
악기
##주군
리가
티베
침입
##나가
94
시마
흐름
사냥
평등
##IA
유한
실력
특별시
가진다
가담
승객
입법
먹이
##러리
된다고
과학자
162
101
아름다운
더블
코파
##시오
##쿠스
알고리
앤드
상역
호소
자극
갈색
본질
재학
상관
일상
누리
백만
벌였
##ove
소득
동방
심지
이라크
타자
수익
다소
역학
감시
##미야
1933
개칭
발발
유형문화재
##ore
어려운
바닥
비례
조조
통산
하인
동서
재배
알고리즘
탈퇴
평론
잭슨
202
1924
##코스
주최
1900
##마르
정조
##일리
도요
모터
여우
내셔널
무한
복원
영지
93
##ational
사도
참모
급제
빌딩
경남
승려
매장
전송
전투기
불만
선임
커뮤
##비히
개설
사유
주력
받아들여
NH
총장
Be
교구
아웃
절반
프라이
일컫
후계
1934
79
이혼
대성
##숭이
스타디
사제
벗어나
##스트라
말레이시아
DV
개방
사우스
주소
리처드
클레
##ory
Pr
그만
누르
##바로
주석
페르시아
이른다
교리
프로이센
당국
신자
파워
1928
국기
##ath
나타낸다
커뮤니
주어진
점수
우라
개성
계층
보살
나온다
밝혀졌
on
대왕
장남
영조
프랭
도모
디스크
가요
김종
08
140
가까이
메시지
피터
벌이
부지
후속
83
Sc
스탈
09
고기
전직
158
168
카스
##인물
생물학
지사
##필더
연습
인용
미드필더
창작
고통
안토
권위
빅토
대지
옮겼
마무리
쿠데
수도원
신사
오직
작동
##가락
시나
위대
Am
##머리
아메리칸
Te
혼인
시트
조문
좋아
와이
조카
타운
156
유통
코로나
##ivers
랜드
사무실
피하
손상
처분
결의
전술
테크
김대
심장
##제국
블라
드래프트
05
CP
1931
조차
폐쇄
##BM
##ont
##ond
청주
이즈
인민군
부산광역시
올라가
국군
학사
부담
WWE
해발
아프
휴대
위키
엄청난
쿠데타
대칭
모바
미리
콘스탄티
루마니아
치렀
##ug
패션
상실
황후
OS
이명
석유
라스
문신
부동
##총리
고양이
사격
##토스
##구리
프랑스어
통화
110
설득
화이트
심지어
여섯
##클리
##레인
163
계곡
독재
피부
매체
스타디움
테스트
돌아와
##해서
브라운
라틴어
레알
##오르
175
벌어진
##데이
신고
닥터
166
남극
화장
사무소
가설
수요
##AM
##아내
154
음악가
1923
천안
가마
프랑스군
대우
진단
##유산
배포
무료
타워
기리
깊이
막대
대책
음성
는다는
심판
페이지
지향
진격
가슴
##자치
부친
FM
분노
1925
챔피언십
크로스
글로벌
드래
산소
적합
##aw
실업
대체로
상대식
티베트
##레나
1922
상인
모바일
클로
157
최우
행복
07
테마
하원
유효
야스
천주교
##다란
Bo
관여
##슬러
디아
였을
##직자
빌보드
선형
인원
##ary
##ood
센트
축구단
고시
##ber
Ma
비치
구입
보르
밀려
업적
어려움
여겨진다
자이언
동북
이내
139
강릉
두려
정차
##ies
com
검토
도덕
돌려
##ical
구매
속해
1921
골드
즉시
늘어
참조
##lan
세부
##드리히
결론
화합
소멸
물건
와서
서식지
느낌
동경
폭격
발간
본다
##총독부
조선총독부
언덕
변하
사기
원수
이마
##여금
그리스어
1929
자국
진영
검색
천만
발탁
연락
게다가
일기
##구치
발명
쓰여
운항
##하이
졌으며
##원경
프리드리히
연평균
나들
분화
게르
맞서
히틀러
이어졌
포스
화려
##ick
항공사
선박
전동차
도마
산화
완벽
코리아
re
려면
미스
신장
##로지
배열
인디언
석사
##베르트
##슬링
오키
총독
노출
성남
칭호
145
JR
al
인생
개량
##바키아
고급
규제
##무늬
##리나
궁전
내세
경비
수호
비행기
My
Wor
##IN
1926
만든다
싱가
엘리자
상수
##age
싱가포르
어항
불가리아
03
필드
라이프
액션
타인
주체
모음
DVD
Gr
프로그래밍
감각
추방
미술관
##해군
타이거
Co
##sh
Joh
당해
필수
Sch
165
자치구
체험
아트
##ence
상속
전당
나들목
Br
##AN
소송법
뮌헨
신도
Ph
##ver
##동생
사과
환승
##조선
##닉스
##페이스
연설
동지
느냐
멀티
비잔
고위
소화
이와
축소
항의
Se
급격
부위
생겼
소문
정교회
목포
소위
언스
중추
화폐
남아프리카
방언
전남
곡선
오가
사퇴
화제
포스트
##펙트
크라
공신
보상
달려
후쿠오카
렀다
반지
창당
1927
등장인물
167
MS
갑자기
세조
덧붙
이스트
피해자
##사이
원주민
국적
격파
구글
각국
06
개명
##ire
##pe
회로
일으켜
맨체스터
##민주당
법학
반사
수업
이웃
허락
로렌
시내버스
영원
##OR
하여금
생태
리드
##슈타인
##가시
우크라
비스
##란색
경제학
스티븐
동화
손실
자는
줄어들
최후
이른바
꾸준
그리하여
미시
##OM
##여서
불안
의정부
스미스
우에
##land
오이
만났
영주
02
내놓
분산
사막
접한다
마주
되돌
이재
탄압
가속
유배
세월
질환
크루
플로리
증언
킬로
강전
구름
유산
조상
##시스코
구멍
평면
받아들이
국토
스카이
스탈린
진학
##ame
로즈
##코프
히로시마
Wh
ch
거치
선포
쓰였
1907
베네치아
사양
서술
##미르
##어도
174
마르크스
##안군
경사
액체
의문
총재
설치류
힘들
산지
마루
##사전
1908
Ad
노트
보스턴
요코하마
가깝
질문
##미니
전북
잠수함
소형
##일본
토론토
태어났으며
아인
조항
146
거짓
실천
투스
후임
##런스
영양
##자키
1917
쿠바
##iss
재개
위안
##리우스
사찰
후계자
습격
블록
##공사
노리
Col
계수
밀리
일련
남기
130
문재
수치
입구
댄스
##다수
1906
1912
예방
Univers
상주
원시
번지
양산
피트
자랑
##ish
대승
화석
1905
개찰
힙합
##도사
동구
부속
##AC
보여준다
자본주의
샤를
이념
지중
러브
개별
##수량
기동
차단
##크래프트
광범
무용
수산
수백
전한
돌아오
라우
충분히
으니
##타이
강남
콘텐츠
##저스
재즈
매치
용인
아티스트
용도
정통
지수
##ile
강요
고객
백인
##공업
인터페이스
군부
나선
약칭
정면
질서
##act
놀이
단순히
메탈
올스타
재생
무력
155
AC
남녀
초점
이정
##IS
기갑
웨일스
트레이드
정확히
대법원
강도
일단
안쪽
##리그
콜로
흔적
##ace
브로
파티
한성
성씨
금강
운송
간부
흰색
##센트
마스터
법안
사인
성서
저자
클래식
긍정
입대
초상
함경
250
선로
체육관
세워졌
구로
재능
고교
영구
주니어
중지
cod
편의
발레
이벤
클리
식량
억제
이행
주문
##친다
Tr
약물
주일
지불
##lat
##ann
##ide
장로
대동
마틴
찬성
타율
조기
행하
혼자
대한제국
아오
베리
촉진
중성
탄핵
##필드
매주
야당
##과이
박근
성종
줄이
집회
##지사
간격
북극
##메인
복사
시모
선물
##ah
152
대원
접속
##ES
노무
당원
다다
중종
##사관
루트비히
벼슬
빌리
김구
목성
칼리지
파울
형상
부품
의석
합동
구사
부처
삼각형
오류
동인
##ost
개척
극단
토대
##히로
대결
##son
비중
선호
수십
점성
##베리아
##어로
원조
마저
모노
진동
Love
##느님
BBC
마감
하느님
세로
포유
부호
코어
광산
토마스
바르셀
오버
히어로
##프레
바르셀로나
세트
가난
경북
시계
대만
전적
##눅스
##ite
오케
##ass
존슨
구상
포드
사이드
스크린
레벨
리눅스
##테스
프로토
대가
양국
암컷
자매
타입
판정
드물
중계
사신
약화
타원
171
코트
덕분
봉해졌
해제
172
안내
유키
##위대
##애나
New
요금
재임
##세대
봉기
##ID
SC
할아버지
비틀
##뜨리
151
Bl
##arl
카리
##베르크
섬유
대사관
보편
새벽
커다란
돌아온
플로리다
900
콜롬
##아르
특별히
농장
당대
당신
경고
자산
현존
##ier
누스
들어오
SM
##브라
UN
중동
걸친
유성
김해
연상
Ex
착용
기부
##가니
##키스
이벤트
수직
압축
열매
149
부서
장례
치르
##베이스
아비
크레
필립
버지
##PS
박근혜
1904
노동당
도쿠가와
감옥
중구
페이스
다이묘
공세
농촌
시신
정류
철거
전제
조화
153
물고기
ST
그려져
채권
그래프
익스
프로세서
레지
무늬
실내
##고속
##대문
169
소비자
광범위
마그
페리
근육
단장
주어졌
혈액
##버드
##돌프
유력
지칭
르네
이어진
유대인
타카
Cl
거점
알레
해협
KT
국방부
Sy
골키
존스
##ica
골키퍼
판타
훌륭
교과
석방
코믹
##ET
레이다
대변
동굴
##티스
규슈
이수
진흥
##양군
간다
종로
하와
후퇴
##게이
소설가
그러므로
동일본
개장
휘하
##야스
En
생애
대다수
독일어
지휘관
레닌
캘리포니아주
거느
메달
재판소
리아
##rom
##티오
트랜스
모래
##orm
알바
엄격
##ft
##레오
##티움
AM
물려
종사
호흡
##즈니
##olog
소집
펼쳤
본토
파키스탄
PS
성명
진실
싱어
구리
Man
왕가
나섰
주자
타점
1896
라트
스케이
비즈
스톤
연금
자책
##성기
관계자
똑같
##힌다
놀라
교도
변신
최상
##유키
일어난다
독점
##투아
사카
직무
토너
그랜드
해설
##IC
##멘트
원장
카페
##에도
북미
장점
Par
설비
##ase
파운드
시상식
지표
이어서
미분
데리
추적
##sp
스테이션
관객
삭제
좌상
유비
경찰서
버지니아
수반
적색
John
##amp
자전거
평론가
못한다
초청
##ction
가구
글리
모자
커버
하천
망원경
안양
주재
특허
회색
삼각
직선
첫째
테르
간섭
단선
매니
서방
이조
추대
##우치
실점
pro
호남
동반
드러나
엘리자베스
멸종
돌아갔
가톨릭교회
147
강등
목숨
배웠
연호
집필
수컷
지부
지질
141
표지
1911
뚜렷
극복
MV
철학자
스트라이
유아
교향곡
오염
일자
민속
증권
항해
##슬라비아
유고슬라비아
##시스트
살아남
나이트
기병
십자군
무산
소요
선교사
PD
토르
경유
메르
철저
과일
##ung
크림
공국
제약
노무현
라마
기관차
지름
우크라이나
나서
캠프
토너먼트
Op
부탁
서적
연소
##둥이
메트로
새끼
쓰러
외계
데이터베이스
홀로
동성애
약탈
##레이크
별자리
패러
마일
이종
지바
스프링
명사
어두
##ound
역전
조선인
도호
비하
유가
제주도
codice
광역
일환
##로프
##밀리
디오
##int
빠지
##베리
##산화
주파
일곱
화가
##클린
동메달
베타
스틸
토머스
결심
삽입
우드
##레아
##ED
안토니
노조
합리
합니다
레이블
놓여
폭풍
트레이
풍속
필름
##드라
박스
벨라
##lar
북서쪽
La
인천광역시
불화
옮기
##오리
운동가
북동쪽
고고
무너
장갑
종전
발전소
가끔
##데르
리스트
영광
좌파
144
지중해
추락
평생
##추어
모시
##마이
빅토리아
대행
부작
유용
모로
요미
인력
세금
##제르
남동쪽
EP
단행
마카
산악
상처
서일본
입사
자이언츠
대교
##페이지
##즈키
기아
사거리
전작
로맨
진술
무릎
발휘
제후
##부사
##런트
이어져
연계
태자
무인
사당
칼리
투구
문화유산
카자
수지
나폴리
##사르
각자
기단
형법
고안
사촌
협약
그럼
별로
전망
히가시
다큐
명시
수장
아기
##영상
기생
사관
홈페이지
도마뱀
영혼
옛날
##가타
##스티벌
가해
We
쇼군
행해
Or
넘겨
##무네
시에
전승
호조
문법
이날
페스티벌
들어서
세워진
단종
돌파
요원
칠레
##야수
종족
는다고
고르
구미
키스
면역
아울
출현
##ere
저널
선진
##타카
IP
한나라
낸다
일요일
##루살
부드
한나라당
도메인
##ult
빨간
##루살렘
World
비잔티움
노비
드리
수면
와카
유역
##oy
수상자
##AP
부유
시게
왕족
지연
인치
##슬리
근로
##메니아
랭킹
겨우
유신
수비수
침해
탐험
기하학
킬로미터
시아
적응
코너
몬테
은메달
파동
Ed
기름
통로
##니즘
상하이
갤럭
기종
품질
사라지
부동산
드래곤
당사자
황태
##주의자
내장
##스팅
올린
남겨
사범
유인
자문
##카스
135
글씨
##생물
과장
주한
네이션
문하
반환
압도
이토
프레임
김대중
중국어
납치
예루살렘
아르메니아
아마추어
하와이
고서
창간
148
가르치
곤충
서인
하사
때로
북아메리카
직위
토벌
##지마
##어트
갤럭시
밀라노
문인
여인
중시
유입
관중
들여
##ool
##나르
1909
명문
서경
하노
##프스
정사
장사
남아메리카
건축물
비단
석탑
수수
추기
성직자
성공회
무선
펼치
보통학교
이순
라이벌
AS
소총
최우수
MP
의병
105
지역구
꾸준히
모니
도심
시외
1500
콩고
급행
매각
모듈
아크
곧바로
색상
헤드
##ime
데려
동영상
맞춰
주거
항목
공룡
급속
모집
받침
차관
125
음모
스테이지
늘어나
아무런
남서쪽
발렌
향교
마산
포맷
도어
주말
향토
다양체
협의회
1895
원자력
공전
전두
DJ
묘지
시집
##슬로
클래스
육성
잠재
복제
사직
##미아
##다니
아이스
관장
모험
하드웨어
기점
##다른
##inc
복구
국민당
금성
페루
봉사
심하
전향
호환
색깔
심리학
해진
##으므로
복소
용산
적어도
##행성
버그
소니
아과
##몬드
1915
손해
거둔
오타
포크
윤치
##IT
회원국
과도
링크
현종
##랑크
DS
SF
내륙
사토
영감
##총장
바이올
안드로이드
NHK
스케이팅
동치
조명
표본
희극
쓴다
여서
##스토
##사기
##회의
구장
마라
운명
탑승
걸리
다녔
살펴
왕립
파생
역과
도리
유발
임신
서울시
번뇌
칭하
138
발효
필라
##ix
##엘라
##잡이
일으킨
사료
신비
푸른
흥미
##트롤
파트너
화합물
추기경
스승
여신
좌익
스페셜
미카
플레
143
방안
##루미
강수량
직장
패턴
쇠퇴
여동생
니스
문과
안보
이리
커피
기용
서브
##이즈
규격
비전
진상
진지
136
보좌
청동
##보이
##예프
##아리
University
가게
수성
##프란
나타난
공격수
파나
주류
합작
##운서
##경기
이루어진다
윤리
출판사
케이블
자바
우루
##마치
관하
교역
아나운서
일행
##스케
##우옌
천문학
int
리치
지주
가하
몸무
석조
취재
몸무게
대령
동아시아
##ric
목격
박영
##MS
간접
리투아
항일
리투아니아
우익
중립
호르
##부인
그쳤
##ton
바오
쿠스
##산군
##플러
연애
자회사
사이클
El
##교육
전문학교
블라디
김동
셋째
오다
인형
인텔
증기
108
동사
의거
##문학
##다이라
시드니
거친
상소
긴급
토착
평소
103
선제
신하
예외
##타운
걸려
포도주
좌석
특급
분배
##나카
대단
드림
사로
이지
##ium
##긴다
##ck
마스
식사
협의
무효
미네
사사
서북
전류
##란다
SN
##란트
전해진다
신임
발족
한양
돼지
무관
##AD
##아지
장성
정교
1913
베이스볼
디즈니
좌표
##대군
173
라이온
스펙트
보스니아
수학자
렌즈
스쿨
체인
기념물
주의자
스피드
수감
아도
노동조합
##att
신용
자사
알렉산더
북동부
정계
스펙트럼
개수
수천
구마
대조
##EN
상임
고분
비아
상영
앨런
입문
청와
공용
##브스
보드
##ign
상무
오리지
제의
##az
##페인
만난
옹호
장편
어워드
재무
문재인
청와대
뱅크
##널드
조류
주머니
연고지
무라
부통령
브라이언
얼음
##ey
리듬
용기
102
##ala
128
드러내
비즈니스
고조
##무르
시달
타마
폭스
퍼시
비평가
던지
배급
심한
애국
가득
동전
부패
뛰어나
MVP
배제
빨리
##드로
##OC
합계
노인
이영
플라스
고립
부수
위주
아이디
정류장
되찾
응우옌
전두환
고베
묘소
이오
##식물
##old
요미우리
저기
선두
싸웠
미만
분지
사르
독립운동가
커뮤니티
선사
신칸
전장
주파수
보전
##TC
개발자
끼리
월간
준우
프랜
##ree
or
붙잡
실용
##보살
운반
##어리
매사
##ear
5000
국어
부리
스와
자마
토니
##세스
동당
바티
압박
들어와
크리스토
기재
사물
쿠르
##외선
##라이터
마쓰다이라
전진
##산면
##플레이
아세
친정
##결승
디자이너
두려워
최신
##TA
사면
편곡
##산물
##erm
광년
교섭
목조
지휘자
노드
##멘터리
퍼져
규명
명종
시체
아프가니
강연
게이트
마쳤
히라
초래
피스
신칸센
오케스트라
DC
##아나
CPU
Is
주립
##집합
관습
번주
오디션
연령
연수
흥행
교전
컨트롤
하버드
##커스
출구
소재지
##리케이션
##산리
##랑이
닌텐
대안
자면
선보였
닌텐도
고개
들어간
오리지널
측근
##균관
127
##레이터
스타크래프트
예술가
리얼
무신
관광객
김영삼
그럼에도
계단
입증
트럼
붙이
제네
##터스
레이스
벌어지
##카드
##erv
##ina
Chr
승자
오렌
투명
하트
시라
유닛
한강
콜롬비아
김용
메가
스마트폰
근접
벌어졌
용량
가쓰
수신
존경
책봉
비로
사리
세례
##트니
스페인어
판매량
판타지
##프란시스코
무슬
주사
참판
과목
나고
니아
한화
다큐멘터리
변동
야생
인자
산타
샌프란시스코
해인
##킨스
1916
두드
##럼비아
에스파
좋아하
요크
##주곡
콘스탄티노
말라
정벌
착수
물러나
가미
고원
보잉
예능
아울러
ex
메디
점유
##데이트
##ork
민사
예언
무슬림
밀접
업데이트
##페이
##들리
문제점
3000
비틀즈
권유
땃쥐
에릭
통칭
훼손
와중
142
연주자
차체
Comp
Fran
모순
부흥
쇼핑
이광
정자
제휴
할리
##stem
악마
자유주의
관찰사
준우승
외무
토요일
폐기
##프라
마오
137
과제
##리니
번식
##로운
송라이터
아베
나고야
Ge
고무
성균관
정치가
크리스티
조국
행정부
마운
게시
서독
인과
퇴각
##ism
아프가니스탄
법무
사다
공과
사라졌
다중
##pp
농도
트레
SP
사바
상류
한데
자책점
저기압
지분
하마
##혁명
사망자
Mus
구제
성벽
아즈
장인
##ous
아틀
우지
청사
##네이
디비전
준공
후일
##수아
카나
다룬
민영
힌두
이명박
##pt
109
소지
1894
북구
시립
어릴
원로
토크
플루
And
겸임
경부
곳곳
문양
진나라
##자와
##태우
맥스
##가미
됐으며
상대방
알렸
스트리트
착륙
충성
기압
미하
상장
신전
해임
권고
##are
구동
##모니
하우
##메르
알라
여의
검증
사명
완화
센트럴
못해
마리오
공자
여덟
회견
##ley
둘레
엄마
찾아가
106
머물렀
귀환
소관
테스
미나미
바그
공략
소금
소닉
브라우
자율
특유
우주선
Ne
영동
##도니아
가면
김재
피고
Intern
프로토콜
서서
원나라
융합
저택
다이아
시외버스
광해군
피난
##DP
대군
##디스
야기
배정
성모
##츠키
부자
승무원
##iel
##가스
해전
##문관
공인
수명
윌슨
##ale
MC
리메
클린
통행
환상
##리티
순천
식당
점프
지목
진리
##ML
자기장
수용소
사지
##그라드
an
각기
없애
정서
마찰
발원
수렴
피에르
##기니
##oph
이복
정밀
챌린
104
얼마나
매출
서열
이이
루터
승점
오디오
유교
호칭
내지
It
위장
자손
친선
해운
석탄
오클
준결승
##eth
리오
회수
##항공
##카르
애플리케이션
sp
교원
우르
유출
허브
##무기
중도
트루
##ach
교장
시공
여래
##백과
배구
원산
정찰
서해
황해
이슈
오렌지
민국
밀양
반격
테일러
##ox
##토미
기타리스트
남양
호평
##하르트
117
골프
피렌
##IM
교차로
하인리히
몰락
상자
이인
실종
##AL
마케팅
김수
부도
빌헬
적대
카시
##라이더
드라이브
따위
승차
주권
학파
카자흐
드럼
##IV
Gre
가즈
부시
##평군
##서리
관리자
우즈
CO
석가
테오
바이올린
경선
루수
야간
##구장
천문학자
개업
나미
연루
최적
크리스마스
For
가질
후한
법령
행진
공민
매력
수군
##yl
중점
트윈
스파이
CC
만세
그랑
무려
여수
지장
##추세
##석기
119
조용
초창
건의
상부
##악기
LC
##oll
위키백과
배상
순조
트럭
패스
##라비아
##동물
매사추세
매사추세츠
김태
눈물
평행
내내
로고
할당
사로잡
분광
후안
##orn
IT
상상
이에
제곱
청장
##서양
연인
착공
콜라
##나와
레이저
하얀
##창군
##원숭이
추모
가라
전임
##튜브
우정
디젤
북위
손가락
##길이
서서히
리비아
성전
센서
외곽
창업
떨어졌
어드
피렌체
궁정
유격
프로세스
기장
##수수
##팩트
동남아시아
거슬러
매개
##크리트
##oci
동등
예배
세균
##로디
##베이터
일렉
동위
두산
유튜브
##위원
담배
북방
선원
스핀
시즈
##때로
일찍이
관념
떠난
이원
지혜
시청자
이슬람교
역명
자고
##수엘라
107
On
##보기
연구자
모으
송나라
히스
조언
협동
회화
##노프
염색
캐스팅
토리
유니폼
All
베르크
즐기
패전
카트
폴리스
금액
제트
##제프
외국어
고체
버튼
왜성
일관
##ild
고가
##ance
강경
부재
진도
사이버
초창기
CE
남인
때때로
슬라
이노
증후
짜리
텍스트
두드러
추격
무상
##ron
운동장
빌헬름
대역
중장
교단
낱말
믿음
전대
전지
카타
##상스
베네수엘라
미소
우편
자발
성주
약한
전도
패하
##전자
항공모
에스토
생명체
리메이크
Car
세미
양상
후자
건너가
물러났
말리
##ome
##oth
몸길이
혜성
리우스
마비
##석탑
##층석탑
##받침
AR
단기
대포
에다
옥스
팔레스
국무총리
격렬
나리
기수
이진
##II
TO
강사
수령
신탁
임상
팽창
리버풀
차남
청원
##마사
엘리베이터
con
테니스
##포트
##화점
118
Ac
달린
##트랙
지나치
부른
분교
신흥
영장
취약
아이디어
어업
바흐
일족
해수
##라미
김진
최저
화살
이글
##노리
장안
##au
고발
광부
모스
온천
NBA
도스
##gr
노부나가
증후군
에스토니아
대주교
부착
에디
채무
TH
천도
##토시
문화방송
게재
보충
생일
술탄
편리
프랭크
자마자
법조
보리
회계
##ai
##칠리아
감지
끊임
바퀴
아리스
조리
르네상스
다녀
서사
투르크
##제리
둥근
언제나
상세
레논
컬러
개찰구
개관
섭정
아폴
친척
호프
효력
기다리
남한
배틀
포수
홍수
이사장
아사히
비극
상서
##시로
##벌레
자유당
앙리
지각
어두운
다항
마야
마친
복장
존중
is
링컨
코무네
동래
마케도니아
단점
죽였
파장
평야
관현
부천
##다드
##ise
로빈
아바
충남
##포구
제작자
지나가
항공모함
양주
와인
##비나
##선거
슬로바키아
에이스
충족
전라도
최소한
브래
안장
호세
##Hz
민족주의
상당수
초상화
버린
서남
유해
머신
물자
전례
충주
대답
로프
이바
파스
121
언론인
후지와
수평
신학교
##산동
##우라
##차례
##야시
Cent
콘크리트
탐지
##enn
스터
앞면
##공신
플라이
한동안
숭배
정무
취지
환원
##악단
양도
##고속도로
동력
교양
단원
유언
지지자
가르쳤
출입구
관통
신기
위임
국사
요르
탱크
##iam
##리즘
김상
박탈
악장
Ab
LP
기금
남원
명목
유소년
협조
전자기
팔레스타인
고래
오빠
추증
가르침
이순신
남긴
첨가
풀려
후세
111
계절
방침
응답
##그로
민회
별개
줄여서
향한
마하
인재
기어
영남
적자
##선스
들어온
북서부
낙선
번영
써서
하부
##리언
##소스
##치오
기습
든지
미즈
음원
인산
중재
토마
##ke
대전광역시
##일드
내외
스콧
주차
중독
##퍼니
네이버
강과
당일
수동
아미노
우연히
전성기
무제
언더
입체
중량
##생활
1899
대외
아군
최상위
나열
진군
지류
##MA
긴장
대제
직책
포괄
후대
##니치
그렸
김정일
Qu
이화
1902
조르
총괄
캄보
토스
삼진
집계
124
갑작
심의
원고
전염
그동안
별칭
사슬
춘추
##und
넘어가
아벨
종결
굉장
몰려
무거운
창건
추상
신세
제수
중순
##페르
##의자
라이선스
동상
동독
연도
장난
협주곡
##트릭
파업
##che
##가루
고사
이를
##ward
##행위
다운로드
중추원
NG
마약
이세
트라이
포장
##전드
서울대
Bar
pr
고장
##yn
라이언
끌어
##져서
공채
리우
여주
주축
테이블
일리노
합법
대처
삼층석탑
전이
주주
침몰
탈환
##라트
360
미스터
바리
영리
원하
유수
향후
##법인
112
외교관
공단
중소
##ru
1890
일리노이
물리학자
카리브
역설
입상
지선
함유
##고쿠
참가자
##ake
Will
ar
급진
따뜻
미얀
촉구
코프
##폴리스
지냈으며
둘러싼
김기
테레
##대신
아이템
동아일보
그로
껍질
무죄
폐위
IBM
동년
두루
이틀
이사회
도장
백색
정전
페어
가벼
치즈
123
결혼식
나가사키
여진
##lay
1901
라트비아
출산
학명
히데요시
발현
엔지
주행
캠페인
##own
반도체
기요
유연
##타로
이어받
##ement
건축가
육지
##실록
1898
원자로
거느리
SD
고백
정주
조반
풍경
중국인
병조
휴식
126
워드
일화
##리에
버려
의상
진짜
카탈
들어왔
col
총사
##기념
##브레
친일파
창원시
단식
대니
발트
재미
태생
불편
탈당
풋볼
하이드
##ata
알바니아
Christ
제갈
바스
방패
아가
장미
가져왔
관람
소환
차기
113
114
디스플레이
닛폰
배신
해병대
##ude
감리
발해
인연
##lic
##래스카
##키지
##델피아
115
필라델피아
격투
실리
어울
##노부
##먼드
십자가
속성
저명
트래
##대원군
파이어
깨달
대위
산림
연세대
조달
소실
얘기
아이슬
갈릴
명백
창시
총선거
점성술
대학생
나타낼
스튜어트
윌리엄스
캄보디아
겸하
미라
충실
포격
공직
김포
마츠
면허
바치
쇼트
##ius
분당
히메
##ii
미주
어원
##EE
##enc
가군
오비
한성부
Rob
간호
쉬운
안성
암석
정말
##승지
아카데미상
느낀
임용
초록
항소
포켓몬스터
에스파냐
CF
명의
바뀐
피에
바이오
비문
##ition
중심부
아이슬란드
날짜
몬스터
애덤
업계
영의정
첼시
NC
막내
모방
바꿔
보완
레전드
붙였
이고
양키스
한스
야구장
바실
황태자
Ag
버린다
아케
원내
##ics
섭취
평일
##TS
국소
리틀
중위
즈음
케이스
힘입
남동부
객관
루시
미르
불명
입지
해소
허리
계몽
광학
멈추
오사
티스
##브리지
오키나와
종로구
시그
원반
전압
컬럼비아
##mer
##tt
##람회
일어날
건담
여겼
추출
빠졌
아드
인격
##곡리
유니버
이소
태수
격퇴
펜실
##베이니아
도호쿠
펜실베이니아
고소
며칠
바른
보일
작센
매카
유동
상법
##네스코
고인
응원
황실
실시간
##특별자치
제주특별자치
제주특별자치도
걱정
공모
도왔
실장
증진
합창
휴전
##리크
##타고
##푸르트
아우구
반박
적분
누군
미쳤
반경
조연
평범
실전
치아
##Pa
바라보
엔지니어
장려
전함
##sk
구조물
책임자
거제
견제
내보
핵무기
##글리
께서
신한
쌍둥이
요동
주지사
출토
카롤
컴퍼니
병행
생전
알제리
입당
##모어
##명사전
##블로
134
구도
도라
반감
##누엘
트럼프
고민
되게
1903
III
로맨스
부르크
치열
퍼시픽
Bro
창고
프랑수아
내려가
사절
신속
자랐
케네
항쟁
BS
김현
송시
##itt
CON
SU
거론
산다
선구
표명
한쪽
문학상
동점
신주
요하
위탁
의약
호위
##붙이
카이사르
노란색
보석
수습
유네스코
##시티
이민자
Ro
Sou
대웅
평원
##IP
개그
에티오
투르
후방
##기지
1884
새겨져
에티오피아
숨겨
시초
언니
여당
여운
춘천
##ject
350
모른다
부과
실려
패키지
이윤
##하면
스톡
음료
1897
거북
구호
명제
서정
신학자
##바시
GP
내린
돌리
별다른
신규
염기
지능
##릴라
페르난
공천
바닷
스러
트위
향년
##루션
##나스
누이
동국
브로드
상공
옵션
횟수
치러진
CS
교외
귀중
김경
끌려
백화점
전념
##푸스
##롤라이나
Go
나비
처녀
##대장
가동
메타
상표
##urn
경관
베토
소통
신중
열대
최악
##어버
경찰청
게르만
나쁜
로열
증대
천사
우라늄
극히
나주
낭만
라오스
더글
못할
해밀
플래시
순회
시칠리아
우세
##마드
International
Ant
그날
난다
뜨거운
상용
시나리오
해변
급격히
중성자
리어
일조
통근
##은이
미션
사우디아
가짜
우울
좌절
청하
초과
##ble
다스리
자오
정렬
무지
제독
평택
##니스트
아마도
##ology
공민왕
일러
##자스
그랑프리
근교
뉴턴
인체
추세
##라이트
덧붙여
나이지
남구
레바
묘역
사헌
122
나이지리아
CR
벨트
정한
퍼센트
##연합
오리콘
Bla
상담
현금
호랑이
Part
나눌
주름
검찰청
그루
시흥
##승부
##인명사전
##베니아
##ames
클라우드
친일인명사전
EC
여지
Rec
대부
##진군
##저지
##ett
RNA
몰아
소생
아랍어
슬로베니아
##말라
우승자
상단
휴스턴
##ex
132
돌연
로그
병역
신생
이준
통증
호기
133
성운
모이
블루스
시바
벗어
협박
##스부르크
##아이
페르디
구릉
대의원
미토
중의원
플러스
헤라
현저
##짓점
##함수
##ash
Sup
꼭짓점
쓰인
차장
러시아어
바나
알코
환영
##수리
남서부
기상청
고령
뉴저지
밝기
법무부
연패
저하
치세
##타주
##중국
스페이스
게이지
관해서
시선
어스
##나리
##마쓰
구축함
안티
오세
칼라
##베트남
사업자
고치
도주
##바다
사우디아라비아
거행
지우
충전
해적
129
거인
부당
신민
신조
운하
지폐
##차기
미얀마
맥주
실린
##케이션
사이다
광물
시오
##포스
오바
우유
방송사
이글스
마이너
사헌부
대폭
식별
에버
원종
잡아
해준다
##이다
##도바
##도리
케네디
냉각
인문
프레스
##어질
연합회
깨닫
소매
아부
아예
우위
주역
초신
116
다이아몬드
No
Pa
비시
시어
##per
라이브러리
타르
하락
모니터
부적
지평
쫓겨
핸드
결선
등재
디렉
배터리
적당
한인
##les
네이션스
비리
##모스
공산주의자
근원
볼리
탤런트
포터
##더슨
기업인
브라더스
스티브
드라
서자
회고
##회장
경상도
반지름
갑작스
만남
존속
##lass
성사
각본가
늘어났
베드
어휘
터치
##내셔널
프로게이
##anc
지방산
인터내셔널
프로게이머
Gu
이경
##란히
##ans
태양계
##ott
아미타
루이지
상점
오노
대표작
##기념물
도르
이케
##렉스
에미
왜냐
일컬
##라리
어요
여겨졌
송시열
육체
##타나
베토벤
교정
복선
상사
약자
충북
테이프
GS
극한
문예
장거리
독일인
소유자
So
부피
성숙
적도
차종
풍자
##EL
나스
레일
리라
박해
빠진
애틀
전했
##그레이드
##hel
프랑크푸르트
미상
##ress
CN
기인
드로
실체
열정
워터
잔류
상반
업그레이드
줄무늬
토성
##ict
차이점
마인
무명
성취
축하
치명
##황후
세계관
Har
One
경연
공백
뒷면
서진
토끼
다니엘
Gen
나트
뒤집
래퍼
생식
아랫
데이비스
가야
숙청
##ual
##교도
##축구
왜곡
##미사
##칼라
##거진
너비
노태우
모았
평의회
러시
블로그
제인
통틀
할머니
##lect
천연기념물
동학
오피스
자음
법정동
의뢰
이타
할지
니콜라
Mon
팔라
거울
장학
정변
후궁
##크라
조종사
아홉
억압
오해
재상
판본
##양함
##isc
고속도
트로이
도루
문구
성체
증손
##rans
매입
몰리
범인
부제
주가
물려받
강서
돌격
레온
목재
부설
예조
초연
토모
##보르
스트레스
Amer
나눠
늑대
말씀
비유
싸이
제프
탐색
내려오
희생자
카자흐스탄
로베르
행적
혈통
우루과이
Ass
고수
관해
특집
연산자
만일
후사
##지붕
##ream
타이거즈
공수
몰래
이긴
자민
##기업
조선일보
연합국
경찰관
할리우드
동정
박헌
보인
서초
일방
헤비
대구광역시
연기자
그냥
사육
확신
##크로
##하루
명령어
누군가
치안
포럼
해고
유로파
블라디미르
은데
피츠
화해
무승부
옆면
윤보
재선
키프
팔리
##시피
대피
루프
해명
공익
산란
에우
태극
택시
간단히
브라우저
당주
매달
살아가
우호
스릴
안테
용병
제재
##uro
##드르
##살이
##ald
##ife
교과서
수법
오라
통영
효종
1871
세이브
탐사선
##스틴
게스트
구해
이브
##권자
진공
##테르부르크
School
둥지
붙인
연쇄
폭동
##람쥐
##리케인
공방
빌려
이식
플랜
하워드
##치기
##idae
생겨났
모로코
국보
누나
허리케인
##레슬링
##하시
찾아볼
극장판
기적
도미니
미루
본국
어미
유년
하동
드러났
아폴로
객체
횡단
1800
연산군
득표율
왜냐하면
Cor
사상자
강희
속했
신시
애틀랜
Dav
진급
극동
방화
시베리아
##번스
##ode
라파
재현
##레기
후쿠시마
동이
상해
척추
##프레스
프로레슬링
물리치
그만두
내정
담긴
모친
가장자리
대웅전
괴물
만료
컴파
##헤이
##ink
아이오
다크
경보
유부
을지
조부
쥐속
##ank
간선
그치
히사
##조부
트윈스
hPa
내주
드문
살리
양호
왔으며
회관
일반인
박헌영
Je
sh
난민
느껴
영문
사본
유진
Su
마력
먼지
왕복
##ade
도미
종래
혈관
흥선
##포드
스파르타
매니저
구스타
금요일
밀집
부딪
사위
성문
알루미
천장
투옥
##러미
분기점
다항식
궁극
담겨
축적
하프
한지
##리안
##타리오
##규모
##omys
그램
기다
서민
시코
##펜하
근로자
고성
누가
리프
마천
시뮬
자택
주어지
커널
라이온즈
CJ
구할
소모
청산
하르
##ark
야마토
제네바
ES
가루
결코
체크
효고
##캐롤라이나
##red
필리프
IN
레슬링
##노미야
##천리
##데시
220
바티칸
Her
Sm
벌금
봉쇄
시가
왕세
유죄
종착
##LE
##HO
최대한
HT
아브
들어간다
코믹스
그대
롤링
분비
세션
양측
외모
이남
칭찬
##ail
##벨트
1860
블랙홀
이에야스
떠올
사슴
탐구
##린스
##11
사회학
1885
가오
다룬다
목판
여파
응시
펑크
평정
AK
개화
성단
수색
웹툰
일가
케임
살펴보
나올
따른다
인명
재혼
조세
첨단
##UR
##시타
##조건
생산량
IM
김창
서머
온다
우파
월요일
날씨
배후
쓰촨
어른
용이
황도
##계승
트리플
프란츠
구경
성도
원했
##마루
##곡동
##ute
받아들였
오프닝
MB
나르
미키
아담
징계
폭포
헬리
##다지
##가와현
광둥
구출
나눈
카프
곡인
말미
백신
어긋
청주시
포병
화상
군정
대거
요정
전년
지미
##클레스
굉장히
소원
쾌속
힘든
##방송공사
아인슈타인
##위원회
가죽
농림
신선
암흑
카스티
##AF
##럴드
브리튼
극심
생략
암시
##우트
곤란
로우
축출
파인
1880
이성계
개막전
알코올
비주
유저
제압
체류
초월
##퍼슨
##블리
모서리
젊은이
경성부
ISO
몬트리
미세
발기
슈트
태그
##ower
몬트리올
with
중복
체스
코카
타당
피오
##대기
##포로
표기법
거쳤
그랜
선우
오크
지옥
가까워
과반
심해
입원
학계
##ole
##스기
##은색
챌린지
데모
선도
총대
허위
##개미
##갈색
1200
광주광역시
알루미늄
GT
마디
모나
이현
중산
확실히
승부차기
윤보선
Gl
LA
야쿠
총독부
##타민
스릴러
날아
도선
##루아
무어
바꾼
소규모
순교
시가지
침투
폭행
##파이어
흥선대원군
단단
달했
동문
불계승
사쿠라
스캔
한족
##토모
##텍처
아키텍처
##바이잔
플라스틱
비로소
BC
en
광무
베스
선비
##퍼런스
개교
네스
성폭
인테르
##lex
방사선
크리스토퍼
의약품
권총
벽돌
제니
취항
##여래
1889
EX
아제르
정세
##파르
##ose
기사단
Fl
고쳐
예시
##gh
##IG
##틱스
##ater
영국인
총사령
아제르바이잔
디비
일생
천재
##타리
버드
유라
그레고리
간토
공파
관세
다발
답변
설탕
총칭
키우
파란색
황족
##그리
##러드
Res
진사
##ola
##니까
##히코
대변인
검정
외야수
##단체
##랑카
세이부
원숭이
마운트
그릇
대패
센티
시골
##줄기
##리코
##EM
Per
격자
공습
코스타
##able
개미
결함
구와
난징
요건
##바닥
##시온
화장실
미들
자비
캐시
##oup
벨라루스
박람회
수다
이산화
히타
교황청
이어진다
공적
남미
냉전
분수
성리학
소자
아레나
##OL
##문트
복소수
National
감자
노보
청춘
Pe
각도
공조
웨스턴
의결
##네시
개소
뇌물
청색
허정
##정리
##코딩
##두리
상응
##폴리
미노
미륵
밀란
샘플
안산
통보
울산광역시
부스
취업
펠리
사용자
1600
사우루스
따온
연꽃
하차
혼동
미하일
옥스퍼드
믹스
비자
퇴임
##que
삼국지
빨간색
힌두교
케임브리지
반해
서재
설화
어렸
온타리오
우측
이병
하리
##디나
계열사
매매
발리
베니
삿포로
직결
학기
##프랑크
##나우
##십자
피고인
경신
공리
연승
오를
제대
카를로
스즈키
Ind
가드
더니
전방
AN
개종
깃발
배수
부채
##fer
국내외
어려워
장례식
가축
신념
철회
희귀
기술자
##out
기관총
익스프레스
##고래
방송인
##irl
만주국
구형
노바
봉건
자선
자아
##토르
CH
기질
마블
이관
최강
AD
BM
였음
우체
정성
화강
감마
게리
상트
세속
##카타
인디애나
드라이버
국악
바우
보이스
예하
옹립
카디
##끼리
##ene
Art
정해진
System
즉각
##간지
##톨레
시범
임원
종속
키예프
다케다
고고학
페르디난
JT
광명
발라
입각
스님
승계
이드
폭격기
To
뮤지션
커지
##덕션
사이토
관음
교대
단층
단축
대치
체코슬로
체코슬로바키아
Kor
가환
규범
퍼지
하단
학업
##화물
분명히
김옥
대원군
라그
레즈
실망
폭넓
안토니오
PR
멜로디
연이
잘라
##고비나
##체고비나
##무스
##EG
어려서
레바논
AG
가옥
감행
극작
무성
소나
태백
하노이
광대
베어스
##타니
##eng
끊임없이
빈곤
채워
맥도
바빌
수련
예고
##ve
강간
기증
대서양
데르
듀얼
무궁
선종
손꼽
유닉스
케플러
필사
##way
##박스
브리지
외관
적혀
##ax
##카가
파이널
끼쳤
나노
물가
시정
앵글
케빈
코시
혜택
##ini
경희
연봉
왼손
위쪽
잡혀
컨셉
흔하
##LS
##카미
##라이어
루타
선배
성지
앨리스
지인
카미
토양
호족
관광지
Colle
날카
잃어버
패널
##아일랜드
THE
대합
매수
브뤼
신약
주부
GN
달한다
욕구
정적
형조
##구르
크리스티안
우즈베
Day
계정
반군
비석
사간
흔들
##면체
##관리
지식인
가벼운
불꽃
스턴
##페테르부르크
글로브
상트페테르부르크
인플
정화
중원
품종
##form
##미트
##타임
거래소
커뮤니케이션
갈수록
관제
기각
도카이
봉안
채소
체르
축조
컴백
필터
스크립
##마이오스
공손
분출
아종
이반
채우
캔자스
타우
1883
아시카가
파라과이
바깥쪽
걸렸
사모
##샤바
가마쿠라
마당
생체
스폰
시킴
##로우
##먼스
수용체
삼성전자
CM
누적
마키
산출
소셜
슈팅
아돌프
주어진다
sc
구절
당한다
면제
워너
청자
패한
구이
무함
푸에르
##ee
##라이드
기니
당수
데카
머무르
보트
보증
세라
쌓았
엔딩
축물
파산
카를로스
요르단
Pet
공감
나갈
늘리
시네
오오
원천
중령
##OV
연예인
뒷받침
입성
##속기
가역
간신
동네
러스
이북
중형
해진다
헬기
##수소
언어학
1868
남매
정종
해역
히어로즈
공명
다름
대두
소나무
아리아
이태
일파
파병
호출
비행장
1870
As
로라
석불
정문
##반구
이용자
천문대
기차
크롬
페널
갱신
느꼈
모모
민정
보복
제퍼슨
소수자
오사카부
아라비아
트위터
소말
열도
조립
##히토
##ery
조지프
삼국사기
가려
강동
괴롭
반공
의자
천하
퀘벡
홈구장
##oss
Sw
가산
극대
모용
빌라
신정
원료
##유행
DM
공고
드레
로이
선행
운수
정립
친왕
##메다
##방울
공약
단면
동행
습지
제로
##로이
##부리
##테면
히로시
헤르체고비나
줄기세포
이를테면
CBS
끌어들
당연히
두께
띤다
서유럽
세비
전속
한국방송공사
더욱이
강변
군중
그다지
##천동
##덩이
사업가
플랫폼
미네소
국영
기저
던져
제치
참의
창출
헬륨
##도스
##PG
마라톤
le
기숙
대손
도청
러셀
불타
석회
타임스
##IR
##브르
통치자
공의회
동조
물품
발급
소령
에밀
염증
함정
##ler
단절
부가
케냐
패했
하비
##그룹
##일으
##쟁이
불러일으
생겨나
해밀턴
델라
병기
서리
우물
이규
지침
##닐라
##ony
War
구청
달아
북아프리카
전산
토기
한테
##역학
맞붙
서류
해남
##CC
##아웃
##해튼
##퀘어
##테르담
마스크
우왕
유방
카카
후작
고추
궁중
기슭
김제
본문
센고쿠
아산
진해
키보드
##천면
장기간
텍사스주
강철
김병
설교
갈래
까닭
상가
싸워
전위
##버리
##ever
프랭클린
분량
수목
워크
자작
토미
##ype
프로덕션
들어갈
240
그림자
DD
Don
경작
노론
무너지
수교
캐서
화자
##가르
Can
부를
신축
전구
##암동
스타리그
메릴
##ye
공용어
at
변이
연동
예명
Med
NAS
관구
이방
정동
Wind
ab
룩셈
어로
염소
원본
키르
표방
##OD
##쿠버
##ution
자치주
도마뱀붙이
매카트니
룩셈부르크
ID
가신
결제
대명
어뢰
철폐
혐오
##아키
중앙아시아
가져온
Inst
GM
겉보기
데스크
##푸르
1888
복음서
관절
리만
명하
복권
산시
입국
프톨레
##hem
마르티
프톨레마이오스
un
부회장
시국
실버
야시
화력
##니시
##즈카
##ican
일부분
기념관
교통국
실적
정관
질소
침체
탑신
토시
##rat
##불교
라이더
부여받
고산
둥글
뒤쪽
리조
불린
서문
어둠
장벽
호쿠
되돌아
모은
사적
사각형
이겼
피신
후진
##할시
김홍
즐겨
##국사
사회당
슬라브
Mc
경인
벌인
안경
영산
이룬
좌측
직경
패밀리
표적
그려진
민간인
농사
켈리
현감
450
CEO
Rock
la
아닐
임관
자형
##산맥
##올로
색채
왜구
이데
저주
저격
커스
함선
희곡
##테이션
아틀레
들이
신원
어리
##ings
도요토미
무함마드
견인
니코
대각
추첨
##ral
1892
평안북도
안치
직면
##chn
##rop
마카오
도사
브란
요약
장시
카우
호모
##지스
##나미
##파크
##기구
##스카르
닫힌
스텔
퇴역
화순
올라간다
더글러스
초신성
경과
광저우
프렌
##로니
##ins
갈리
느리
등용
산둥
살라
수축
양반
정려
##ma
수원시
공예
동요
장자
한층
##12
아리스토
kt
따왔
로비
메커
스노
인질
지녔
찰리
코코
코끼리
##니지
##let
컴퓨팅
붙여진
미시시피
키프로스
감안
개헌
밝힌
영등
피겨
##자르
페널티
개원
교량
기성
맨해튼
유체
합당
평안남도
Mag
단의
독서
리바
명분
무슨
우회
함부르크
##바야시
##메스
충청도
SE
군청
만성
발칸
비늘
이건
짐작
##벤처
##처스
뉴욕주
드러머
프란체
그레이트
단행본
어드벤처
me
검출
샌드
시합
오쿠
이빨
중공업
흔한
남동생
새겨진
스트라이크
가열
거뒀
신동
콘테
특색
헌신
##창호
##츠크
아래쪽
지지율
포도당
넘기
둔다
베른
의의
취미
핑크
현직
##레타
##yc
##그라
제국주의
KIA
격차
김규
동형
퇴적
##oon
##UC
##히트
##박쥐
##올라
시켰으며
야마구치
가계
각색
깨끗
농산물
몰아내
상경
이완
정선
개인전
be
ph
불신
세바
수양
심화
정인
NE
Sk
거처
우상
##OT
신도비
시뮬레이션
기르
노이
마애
안드레아
법조인
무궁화
냄새
실무
우치
유료
자르
##uk
아미노산
ro
낙동
도우
함자
##사우
였으므로
울프
충렬
##me
상고
선동
성별
세손
장제
정점
퇴장
회상
##몰로지
거짓말
봉해
삼촌
독성
보강
온갖
올드
원더
일자리
프레이
플리
##케이
그래미
1882
NT
수심
실재
용암
카바
##원장
강남구
비타민
속편
조이
카타르
태권
열린다
미주리
메커니즘
상행
쓰시마
가타
리모
밀러
역량
열심
확고
##홀름
##inal
이주하
꼭대기
대국
사카이
배우자
동물원
자치체
박지
블리
유스
종점
William
Fe
루크
발각
수열
스퀘어
시야
일산
쳐들
##려서
##그레
성남시
군함
네오
더비
델타
오로
유령
유희
정유
출석
평형
한미
##ific
1592
선보이
##uck
글루
벤치
종파
콤팩트
##tr
##사이드
ATP
수인
제동
진수
총무
일렉트로
일러스트
qu
보성
생생
수확
1893
스위치
알렉산드리아
왕정
자크
주지
통역
##구역
군산
급수
마녀
부조
빛나
##IL
##공산
마다가
부드러운
봉수
이븐
장원
철종
치과
##피언
새로이
후반기
Wal
광도
글꼴
울리
이장
지청
파시
##타마
##벨라
##ino
가면라이더
대출
수료
이끈
합스부르크
##글라
바이킹
일으킬
Cr
복식
자결
페로
##개골
교육부
둘러싸여
개항
공황
대관
불어
입주
직통
체조
출가
트릭
##OP
##파리
##캐슬
마르틴
바르샤바
그렇지만
아름답
윤치호
나루
번성
사살
상기
용서
토요
그리스인
##ows
로렌스
해부
스트리
조반니
다툼
등극
막시
무술
문종
발병
수복
위스
호응
발렌시아
궁궐
로키
이득
체중
하치
##현동
##링턴
김정은
등기
려던
막스
재난
쥐과
추론
탄도
##사상
##에미
고토
관동
글래
두꺼
섹스
파우
패럴
폭로
##위안
바이트
##ike
무형
샌디
수녀
재질
출처
##ara
붙여졌
관문
남작
루비
버마
선장
에디션
오락
절단
쿠니
터보
하행
##티시
##셰비
설립자
프레드
Mac
김민
빈도
알프스
와일드
조광
특권
##lo
##으니
##뜨렸
연대기
경쟁력
MTV
SA
공표
뉴캐슬
마가
모의
무스
시중
테네시
갈리아
김지
다를
전복
집결
##eph
##사관학교
오클랜드
루카
민감
입수
저렴
조인
호크
##테이너
##피어
##휴일
올림피아
1887
자세히
경시
달걀
진전
##eral
기념비
거주지
개구리
대문
실권
원격
타케
휴가
##덕왕
으려고
대성전
구스
장단
프론
##세기
##ella
클라크
Comm
##도르프
가볍
본성
서장
시직
유목
제너
체력
포스터
##레르
부작용
비주얼
캐서린
시직경
농부
연못
위너스
음향
##row
스토어
도교
앞장
맹세
아치
엘리트
중합
현행
##테쓰
Fr
돌기
줄거리
차가
피핀
활주
##사업
##ons
대성당
준결승전
통틀어
카스티야
극작가
스크립트
국당
극도
복용
수중
스텝
천왕
친위대
헌정
스트로
페이스북
극락
빈번
상금
##기스
전시회
Dr
des
무조건
제왕
카즈
부르고
원로원
우체국
모리스
모티브
미생물
의과
크레이
흉노
##포터
국유
로저
접수
##브리아
1886
가져오
베네딕
스폰서
ad
두개골
보로
보위
심야
요지
위그
조계
청소
호리
##미즈
##ook
경제학자
랴오
반전
서대문
시멘트
어류
이양
홍문관
##air
아니하
야마가타
1848
니콜라이
Robert
Korea
Mic
ac
경질
소행
소울
신상
알프레
추종
피지
협연
##바른
##컨대
아키타
감금
구약
##라기
교도소
다마
만년
상급
수분
유정
##무소
##테인
경호
미셸
사가
종말
통용
회피
교육청
##ull
알렉산드르
##라이언트
GDP
메일
우아
클라이언트
##콥터
고양시
Open
담보
범유행
보라
스태
장대
종자
된다면
##ision
스톡홀름
Black
by
가네
꼽힌다
돌입
시리
약혼
청룡
하고
##원수
##ors
옮겨졌
파나마
왕세자
sy
탁월
남해
농어
단과
덮여
동대문
칙령
포획
하류
현은
##ux
##TP
EU
GB
김형
드레스
마우스
소시
앞쪽
일당
학설
황소
동성애자
바오로
Pol
난이
떨어
반역
요제프
전격
중서
평민
##등식
갑옷
게릴라
겐지
나간다
지출
라이너
아마존
NGC
기분
김원
나란히
무척
압둘
이언
조수
주조
진료
클러
해져
##산성
1891
호르몬
마다가스카르
금호
남산
든다
바디
볼프
쓰레기
야드
일괄
펜싱
평창
헬싱
##다운
##의장
진행자
분류군
High
공휴일
낙하
브랜
세키
유러
전날
줄어
톈진
세워져
후속작
Eng
At
Live
Nor
Tra
감싸
검열
관청
스칸
카터
포고
푸르
##루냐
##ave
무로
테라
판례
##바나
프라하
트로피
들려
매거진
애칭
위나라
##운다
올랐으며
가나가와현
김옥균
ABC
사방
애리
크라이
##ane
제작사
지도부
##셰비키
문경
보헤
북경
이룩
케르
포털
해리스
러시아인
아라곤
et
권장
불행
안녕
옥수수
일명
참사
##ael
##지능
마르코
인공지능
생긴다
우에스기
##ield
유러피언
시크
펌프
시위대
station
경주시
만장
방글라
불량
산요
소음
약하
조형
##테리아
##US
청동기
방글라데시
강대
곡물
구실
긴테쓰
라오
버클리
총기
##마르크
##거래
아이폰
특별자치
사무총장
특별자치시
로트
불변
차르
##카리
2021
SL
가의
다투
듀오
반성
생선
엄밀
자생
정국
정경
##충류
##ited
경영자
복합체
결핍
사설
순종
중상
특전
반란군
연극배우
안테나
김유
내면
매직
박종
북아일랜드
살려
세네
을까
입양
지켰
한신
호의
##포시
유아기
전염병
AV
vs
감동
문고
악단
치루
침묵
퍼스
##란토
##통일
##카라
그래도
비밀리
총대주교
부원군
성령
안나
오하이
제물
주화
법원장
예수회
Sci
오하이오
EM
구니
모인
신종
아날
토스카
효자
##ner
##sch
##파이
##마리
선거법
중앙부
이동하
양성자
스리랑카
구마모토
계시
몸통
미친
서신
이겨
줄여
타스
##mun
공관
로크
리터
맞대
상연
서귀
오로지
왕권
주임
초고
프랑스령
210
컨트롤러
##공산당
국철
근사
말년
숙주
어시스트
코사
##oid
##레스트
##정동
1864
넘어갔
오미
온대
커서
신문사
생존자
리조트
낮추
다나카
실정
에콰
재해
찬양
화기
##바이트
는다면
여의도
에콰도르
다테
송신
수년
신지
촉매
##끄러운
활발히
대법관
로얄
위생
제리
총통
하야
##de
131
Star
어려웠
고아
대본
리히
여권
유권자
장흥
켄터
합친
##텔레스
1863
오른손
##CAF
감수
나우
돌출
유혹
클레이
판소리
##토랑
##사고
Charl
레스토랑
Geor
효고현
내야수
발령
스칼라
전무
초콜
##제이
##ouse
유대교
플라톤
함경남도
염색체
의류
정의당
고속버스
Alb
NASA
he
가솔
겹쳐
대북
아쿠
주입
즐길
차용
초빙
위안부
아리스토텔레스
갤러리
하타
EBS
Your
노면
솔루션
요충
공양
당내
무실
수로
유식
친분
티코
파손
회귀
##사리
유치원
맥락
재일
전주시
케인
켈트
USS
창시자
콘테스트
기병대
따랐
방콕
총애
해태
해저
##ange
대합실
TR
동진
로페
산성
성실
워즈
자제
종영
콜레
투항
튀르크
페니
허블
홀리
##정원
##덴부르크
##ille
독창
소행성
에는
전래
주된
##na
##번뇌
대사헌
Music
후지와라노
켄터키
고든
사역
##트르
##ana
레이트
##iver
스카우트
시코쿠
Girl
동유럽
반하
카피
평평
330
프랜시스
애틀랜타
리옹
마켓
목요일
수염
슬램
야전
증인
지로
칼뱅
티켓
하반
##매매
냐는
럭비
소피아
원심
주계
폭파
휴게
##지아
##erson
솔로몬
ref
스트라이커
IV
거성
샤프
왕건
전전
##FL
##푸아
##ital
자연수
총사령관
센티미터
니혼
단군
섬세
인프라
재래
피치
##지르
레이크
대장군
Life
wh
교실
도둑
동참
마술
사쿠
알래스카
앤더슨
자카
채취
에스페
IR
처하
추리
한림
##amb
모터스
간신히
나간
분과
어촌
티아
##지리
내려졌
가맹
아소
차출
튀니지
허드
##바흐
##사와
##플로
##환경
Super
Sa
드디어
뾰족
영유
칼럼
컨테이너
##메니
아키라
프로그래머
우즈베키스탄
Er
고딕
광양
아목
어쩔
올바른
요법
음절
자칭
테일
##풀이
##삭스
타이베이
1866
1876
적외선
지성
처지
칸국
퍼포
##에스
찾아내
클린턴
Time
농경
보낸다
세븐
씨앗
카지
커플
##맥스
들어올
열심히
활주로
퍼포먼스
OST
밴쿠버
절망
천거
추력
타석
파도
헬리콥터
별세
브룩
오아
##oo
##cess
##렉션
방어선
아스널
소방서
걸린
내무부
몽고
연한
호스
##sc
나타냈
230
파이프
노스캐롤라이나
방사성
강해
김명
백자
벽화
오지
징병
타협
화약
역사가
NP
매킨
원통
테리
나타낸
볼리비아
대영
사수
수락
적료
##대교
##트넘
##위성
##any
교통부
지상파
del
끝났
생계
시속
천국
하시
##부로
##수스
잡아먹
말미암
Good
발라드
밸리
베트
속력
인칭
적군
전단
제위
창의
##신문
일으킨다
SV
고쿠
드루
볼로
북조선
패자
포착
해독
##틀리
와이번스
대승불교
시달리
시즈오카
감찰
결별
위력
임정
초전
##OW
실험실
아나톨
구내
리즈
배려
송출
시종
실존
와라
제노
해왕
##워서
정부군
##ations
1873
부르고뉴
Up
도널드
라서
민요
이항
잇따
##유예
##망디
부각
이회
이단
조례
표창
##미디어
##erg
아랍에미
##클리드
화강암
아랍에미리트
져서
하코
후배
##지기
1881
예선전
프란치
해상도
과실
자명
호아
혼다
##거지
##질러
##놀이
알파벳
해운대
객차
경복
김인
방치
이렇
##에몽
1861
프레데
해리슨
시네마
개개
고생
녹화
느린
능선
돌보
모건
스루
아데
퇴직
리비
선봉
초원
타지
##페스트
사라진
오바마
금산
동로
릴리
블로
수식
알베르
치른
##네그로
정치학
이탈리아어
만화가
똑같이
David
강령
고쳤
리뷰
마우
봉화
소극
슬픔
정작
지쿠
##솔리니
낙동강
베어
산스크
어찌
카네
포토
화엄
##za
##IX
##러지
국정원
산스크리트
가락
니키
다치
마땅
컨트리
코네
평판
##대표
아날로그
거미
공영
대좌
모셔
모욕
브레이크
정읍
종군
창문
##쩌둥
1850
케이프
시트콤
천안시
마오쩌둥
가솔린
디트로
머스
백두
유영
일리
##하키
##믹스
##uth
앤드루
유니버설
메릴랜드
디트로이트
벌여
쿠퍼
휩쓸
##연수
뛰어났
오리온
대지진
놀라운
애리조
Vol
걸어
당연
도래
유공
프로리그
##aster
지닌다
쓰여진
라치오
리보
부평
오일러
유선
자메이
재편
자메이카
간사
방대
백과
본작
분파
정몽
탄약
##변이
##토리코
돌연변이
320
선천
재활
창녕
##다르
##그래
##달마
API
메라
메카
바트
야외
##대사
##GM
제조업
선구자
검거
관행
김윤
넷째
루키
마차
벤처
봉인
이의
카마
호스트
##추부사
##LA
정보원
편집자
프린스
가와사키
격추
버터
쾰른
현황
##부르
CONCA
Reg
from
가이드
귀신
꼽히
남베트남
대대로
우루스
찬사
최영
280
GNU
소말리아
CONCACAF
Do
마에
메소
무솔리니
미수
##용차
##워스
##워하
드러냈
포항시
Record
가쿠
극우
까마
로드리
문단
암스
워치
중퇴
출자
카사
케라
화랑
황색
##나드
올라갔
미군정
아나키
주차장
푸에르토리코
배속
위구르
##나마
1865
굴절
덮개
루돌프
사림
예컨대
유우
##어사
프랑스인
시간대
파이터
아름다움
마법사
comp
##lation
기이
넬슨
명소
송도
악보
우한
##co
##으로
##ative
레이싱
시켜서
패러디
유격수
나트륨
장학금
강당
공존
남용
리프트
밀레
바꿀
비정
여사
함양
향했
대단히
RS
Sec
tr
끼치
라르
서면
습윤
쌍대
지법
카테
##제비
##왕후
타이어
하노버
Em
단말
성화
여유
캐롤
로마인
네이션스컵
GO
상록
색소
앙골
천수
총격
흐른다
##미스
##돌이
메이커
Of
감상
노랑
단속
마니
전담
점포
토리노
프롤
##천사
영화상
##ough
프린스턴
Air
Rev
내걸
다윈
다람쥐
비엔
스로
죽인
후유
##시노
서기관
매트
원군
침례
콘솔
펠트
힘썼
##들이
##UN
건전
공성
기해
기량
마셜
실록
심소
이모
지석
파랑
##화문
##서스
로마자
Club
Night
TBS
간첩
그저
다저스
라디
부파
성곽
이점
페트로
##코토
1872
MHz
애정
잠정
##도라
##버러
마이크로
지붕돌
몬테네그로
기숙사
국교
군데
너머
누렸
러서
부왕
시부
연희
영정
해피
##프로
##ody
보수당
그라운드
타이거스
Act
Red
강행
교부
묘비
밀어
불참
성동
자판
충무
##고스
재단법인
Ev
SH
맞춤
법관
벨리
부다
엔트리
좌의정
캐리
항만
##lude
##들여
##히사
보안법
용인시
초콜릿
결사
유클리드
전보
정제
정령
퍼스트
포식
##오르크
##내리
비서관
IA
아와
아빠
유서
합치
##파니아
##언스
##둘기
1862
사운드트랙
광복군
김광
바지
삽화
한문
##era
##raph
노르망디
ATC
에스페란토
Mich
공소
사영
수필
자란다
졌으나
치환
##도군
##단위
너무나
Mark
카탈루냐
Euro
고이
내성
리카
받들
시안
신발
압록
중생
##림픽
##느러미
1878
프란체스코
가가
약해
족보
형벌
##자루
##브로
이용객
걸쳐서
해안선
가늘
양수
오메
파문
##ps
마이어
생겨난
Park
쳐들어
남방
내무
모금
병자
이우
준장
이뤄졌
보헤미아
거란
대덕
리사
부총리
숙부
업자
웨인
유생
정거
파벌
패트릭
히브리
##ena
##ator
270
College
나아
보름
비뉴
서산
시애
이송
작물
지자
마닐라
무네
무과
병마
부합
어웨이
연말
용액
##lin
##라니
##프턴
##구스
지배자
App
Ke
NS
볼트
우림
##oot
어긋나
요충지
거세
고흥
사서
중엽
##스트리
동시대
알렉스
아비달마
메디치
GR
모어
약사
연정
옮긴
주성
플러
##애미
##EA
##교통
##데라
행정동
마이애미
로스쿨
고인돌
OB
UC
국공
부의장
삼림
##북구
지나간다
달라지
가중
도르트
문무
소프
유학자
측량
타락
##비안
러시아군
뛰어들
저지대
선진국
루이지애나
##디나비아
패럴림픽
스칸디나비아
메뉴
스런
시몬
신곡
외치
##광성
1867
Tour
공무
넘치
대나무
도피
볼셰비키
세습
센다이
신입
양력
익숙
절감
탄자
트렌
특화
함량
형편
##토프
바이어
시켜야
요시다
레오폴
박영효
요하네스
주계열
Mer
감성
강렬
곱셈
류큐
배달
브레이
사천
수하
워커
준수
##여객
##urg
신주쿠
시애틀
고트
기세
선대
저축
접해
##상시
##메드
##해살이
##QL
260
중소기업
가브리
기와
낙양
등등
조교
피리
##말로
보여준
오카야마
급속히
Hy
Kn
가혹
개기
관성
마누엘
모색
모호
반기
예약
예종
지극
##나갔
이뤄지
좌표계
달아났
CG
James
단결
욕망
주심
출동
학대
##DS
##철수
사이타마
American
ng
관악
라즈
범행
사탕
산수
성악
안개
역도
으리
정월
조롱
피로
피라미
##ha
##ublic
USB
Mi
롬바르
모범
목회
보행
비추
전학
##유사
##DA
##관계
부드럽
AB
West
무작
분단
하의
##자네이
##데자네이
1869
어울리
DF
강풍
관우
급여
놓인
라기
불경
서태
클라이
파란
##센스
##협회
자유민주당
투자자
gr
게오르
공대
동산
속주
연립
요절
은혜
이은
절도사
치카
##공주
##etw
파일럿
1830
only
Po
Ser
공판
도봉
마린
북유럽
우시
의령
종양
주선
##폭탄
연장전
4000
교향악단
레인저스
브뤼셀
카카오
MM
tv
간략
결핵
꾀하
데일리
도키
로이드
선명
은거
이아
카스트
코펜하
에이전
미야자키
콘스탄티노폴리스
모나코
코펜하겐
LED
se
가토
로타르
산호
전락
증폭
철강
프리스
전반기
피아니스트
일리노이주
Des
꿈꾸
남군
노후
동탁
때려
발동
염려
천주
취했
평지
##마주
##꼬리
명확히
Instit
정거장
김승
모하
반포
성원
심상
외과
원유
차수
##PA
국제선
나카무라
초록색
Cal
Jos
te
스콜
징수
##다오
##제품
대표자
고려사
함경북도
Paul
Mart
Tw
고로
노미야
동적
랭크
로버
소아
시노
원전
절정
점검
직속
최선
켄트
톱니
##팡이
##ari
마르크스주의
아이스하키
리우데자네이
JTBC
리우데자네이루
게오르크
고마
글러
대마
오름
우의정
자란
자서
점거
##비크
Val
구두
금전
남하
동포
정재
제명
집정
##ump
장로교
지바현
가고
국외
김준
르노
형질
##ero
비해서
HMS
Min
배역
빙하
성산
시이다
양심
주세
흡사
Thom
헤이안
SO
낚시
내분
대종
박상
홈즈
AL
도이
부름
비준
허난
##be
##버른
##그마
##온다
##ura
내세우
##include
무실점
깃털
농지
비대
았었
운임
접한
초안
##ION
가져다
영원히
ne
그릴
떠오르
알폰
위조
전수
##지부
##세유
스타트
카메룬
Award
무서
북군
위촉
일진
주창
지오
태후
##의사
동맹국
앙골라
MA
경무
골격
맡기
문집
스투
장병
코퍼
##미경
##타이드
##걸이
##XX
203
##illa
애덤스
프란치스코
Met
당뇨
에프
정형
추이
추서
##부아르
##000
예정자
통신사
##ensis
Pre
리본
생리학
세요
소중
양육
직행
진로
헬레
##IST
관계없이
서사시
각료
갈아
경위
고노
대접
브릿
양조
자수
토목
연구회
아이즈
Ang
복음주의
철저히
경건
느낄
도자기
도카이도
심문
에바
정진
##예술
##히드
사단장
##berg
니켈
송파
온화
월트
##der
해석학
참모총장
잃어버린
피라미드
Jo
댓글
만난다
사학
생모
수위
영암
응급
이호
제우스
중공
치유
코난
##ris
##로쿠
조선왕
##ety
카운트
보수주의
##ney
알아보
제갈량
까마귀
가고시마
Dra
스가
심부
아유
자진
학장
화요일
##atch
기관지
다이어
마르세유
##app
북극점
##선거구
Pla
도야마
머니
모차
베일
새긴
세련
요양
일각
차선
##게스
리더십
그만큼
두려움
토마토
대니얼
도르트문트
관상
맞춘
모국
발포
배분
율리우스
피할
해치
형용
1875
도미니카
내일
성기
슬하
시우
왔으나
할인
##나파
탄자니아
King
규탄
다우
마테
말단
멜버른
보루
보령
수요일
위함
절벽
흩어져
발전기
Inc
평안도
플로리다주
Associ
암스테르담
750
관목
네티
달랐
리에
바꿨
스킴
안방
청송
##블랜드
1874
##ection
관례
다마스
동향
몰타
제창
페트
푸아
한중
휴양
더블린
Dream
가닥
간혹
고온
무안
세레
잠깐
장녀
지면
항아리
헌장
환관
클라우
빅토르
클리블랜드
KB
Out
고집
교의
국수
다듬
대청
맥아
소용
어군
여고
접어들
조니
칭송
홈경기
##ball
TC
비지
수나라
키워
##북면
명성황후
대공국
서초구
AF
각성
높여
덩어리
박테리아
세무
웃음
정반
출혈
팔렸
##레드
##셔주
화성시
볼로냐
Best
금환
끝날
발목
분사
온난
제철
증오
##라고
노르드
아이디얼
공방전
게끔
반주
본체
아델
저우
학력
##짜기
사업소
부여군
글로브상
Song
강성
경종
공안
나인
도박
레버
민병대
선양
유의
이누
입헌
후예
##로니아
##자동
부상자
Sam
가도
구한
순례
여도
오대
줄리아
일본국
다이쇼
베이비
글래스
BL
구치
내린다
미아
복종
사치
소외
순차
##바인
##태평
##클레
레이디
Cro
거지
능동
당할
대주
대금
우두
재팬
지르
직교
치뤘
파편
펠릭스
합하
경영학
올리브
페르난도
스캔들
메츠
삼중
톰슨
피우
##EP
##ates
다스렸
남극점
가했
나뭇
도하
발상
씨족
왕궁
이스탄
종신
카세
##보리
##IF
##EST
대전차
아무것
브루클린
데스크톱
이스탄불
Ent
Mor
독도
무단
삼존
타수
##게임
##암리
기념일
##eck
헤라클레스
City
단정
복위
신진
이강
재결
천천
청량
카레
폐렴
##net
##ula
##티모어
##로이드
##에고
##eration
텔레콤
니콜라스
지켜보
닉스
떠난다
무수
슈테
여타
외형
종묘
차세대
##ng
##업자
##른스트
##멘스
관련자
케이크
유적지
경전철
이즈미
국부
국한
리베
메틸
벌레
사안
앞선
영예
잔인
정정
줄리
##소통
##호란
프랜차
경희대
Win
램프
미야기
안티오
오하
주먹
진흙
##ular
##독립
의사소통
가라앉
몰랐
묻혔
상국
성매매
옹주
음운
저조
콘티
##네임
방사능
SNS
압록강
군관
이터
진한
카니
헤로
##나오
결과물
급히
사변
종식
탈취
토이
하키
군사력
프란시스코
천천히
AU
Rich
고스
끝냈
드미
블레
에반
위패
중수
투여
##나기
##서니
일본식
부르주
페르미
둘러싸인
스탠드
감리교
세비야
LS
cont
it
격리
기전
긴밀
도상
도산
도제
반동
발자
사민
서바이
영덕
위로
재발
하구
호대
##민스터
레드삭스
격투기
남조
명부
연회
열강
추억
파커
파푸아
##몬트
운동량
##irst
장난감
난이도
프랜차이즈
기뻐
소사
우연
지리학
홀딩
##시대
##콘신
##ster
서해안
위스콘신
Bre
상어
수량
터지
항로
황산
##헤드
1840
프리미엄
삼각주
금고
메스
무언
상파
수차례
숨기
었었
여학생
오디
기원후
##span
DR
아다
차츰
##거스
상관없이
합창단
강서구
고의
공시
달아나
독수리
모세
바시
배양
별장
쇼크
심포
완결
윗부분
장래
증세
취해
황자
교육자
##ason
Windows
겹치
대진
로리
외래
위시
척도
흑백
##드라마
공화정
Lib
Rad
바쳤
슈고
이바라
자외선
전세
친족
편견
헌터
확진
대상자
파시즘
급증
대차
박수
서스
유태
전미
제르
주니치
##동자
##친왕
프랑코
이광수
휴게소
ON
San
라크
통지
하남
웨스트민스터
자서전
Rh
광자
몸돌
백업
설문
양현
재외
절제
정했
치하
##가르트
정치국
단체전
알아내
그레고
데카르트
Ap
iOS
교직
동종
비르
비토
용품
자재
축전
취한
파충류
퍼즐
펀드
픽셀
선거관리
강화도
이치현
후세인
선거관리위원회
Hol
간직
견고
계주
라시
실증
양대
열전
##티에
##TE
##화학
##its
포르투갈어
삼국유사
필립스
대교구
브래드
여운형
광선
노브
다비
볼티모어
브루스
사쓰
습관
시비
약점
왓슨
요괴
죄수
집착
컨설
##익스
##욕장
들어섰
독립군
그랜트
충렬왕
긴키
네모
라흐
림프
세분
슈투
이메
토라
##르산
##칼리
##기아
##셀러
Stud
육군사관학교
1879
MSL
모차르트
계량
라드
마타
발톱
스킬
에마
원활
현무
##60
나치오
개체군
Cup
견디
과시
노사
머리카
삼척
애초
왕성
잠실
해시
##uch
##ze
##꿈치
스테파
후쿠오카현
머리카락
고성군
번창
유능
재고
행방
휘말
##ello
관현악
히타치
간사이
단조
버라이어
실각
지린
타로
대한항공
국제법
돌아다니
Phil
와카야마
경복궁
버라이어티
곡면
놓이
데니스
몰두
이봉
추계
축산
퍼졌
##티컷
오스틴
집행유예
바그너
코네티컷
DB
von
댄서
동창
배리
변광성
##티넘
##yr
나타날
카이로
플래티넘
구스타프
res
나름
넥센
도출
미츠
복직
양보
월터
토트넘
하급
##본부
##쿠니
국호
마트
베오
부교
불사
상정
안산시
정칙
조영
코소
행군
사상가
베이커
밝혀진
민영화
Mod
격려
과연
버러
아카이
오만
타리
##사태
시티즌
바람직
화장품
황해도
우울증
Dev
ML
거사
계좌
마요
비야
용의자
재앙
즐거
페라
향기
헤어
홍성
##li
##GA
##플린
고려대
공연장
하이퍼
엑스포
제이슨
Michael
Wii
경의
구금
그나마
아브라
이선
장전
코호
##루이스
##곡면
##amm
##ros
1877
아무리
카르타고
달라진다
Bus
거스
군세
매스
명인
반정부
서예
셰익스
여배우
통폐
##ior
##16
프로모
##elf
이성질
셰익스피어
경지
권역
높였
뉴클
데미
보낼
요격
을사
킹스
호찌
##클럽
코스타리카
단거리
대도
두어
로브
막판
알맞
조공
페스
플랑크
##들러
##RT
##디슨
##홍색
204
사회민주당
아키텐
으려는
신세계
as
구강
대목
러닝
모던
배운
비스타
성수
스모
영월
패킷
포화
해안가
대리인
댈러스
두각
온건
찌르
##티노
##타스
Group
이바지
거칠
군벌
근래
승하
페더
표정
필연
한큐
705
페르디난트
Fri
목욕
버섯
보정
사비
연행
우마
천상
협업
##우에
##80
아이콘
기업가
뒤늦
무르
순양함
슈타
재벌
제단
천마
특기
##lor
##ien
##워즈
문자열
뛰어넘
타임즈
Techn
650
당황
도성
몰도바
박성
발산
에로
에른스트
익명
치우
파열
하중
한복
함흥
허베이
##네트
##치히
##열차
아닌가
장애물
근거지
Center
아케이드
알폰소
통폐합
Cap
Rep
면모
생도
선율
소동
유구
조나라
죽임
쿠로
풍습
##우회
##세키
##BI
김성수
##크라테스
유라시아
onlyinclude
갔으며
거룩
경량
공법
사커
어의
열려
최장
코리
항우
##다고
##혈구
브리티시
게시판
발기인
노아
눈치
명륜
어파
왜군
인제
자립
정예
첼로
퇴위
하스
205
FK
XP
감추
과잉
기밀
꼬마
닉슨
단발
리코
모멘트
물결
섞여
소라
왕관
조준
피크
히토
야마모토
380
비스마르크
Exp
내보내
제너럴
Lou
김희
러일
주고
취리히
캐논
파직
##께끼
수수께끼
가든
관내
다이스
도네
어는
응하
이범
전권
##라호
올리버
두려워하
HTML
IMF
백과사전
가우
길드
라자
미성
부에
신봉
엔드
원동
축성
큐브
피의자
##ila
##드리아
교통사고
개정안
청년회
녹색당
Av
IOC
들리
보너스
송환
승용차
시문
우월
콜럼
한번
##미쓰
##리시
##단지
활동가
##ret
스포르
재판부
뉴클레오
550
RT
강세
고난
스톰
지경
타타르
특사
##gan
##모음
##NG
아이언
인해서
마르쿠스
1859
APG
하얀색
colspan
Bab
Ver
계보
과격
광배
구슬
국화
김천
나마
베컴
안무
에치
오산
전리
직계
타일
탐정
##디부아르
##노르
##너드
##uss
미나모토
덧붙였
코트디부아르
사이타마현
am
내포
라바
라이스
뽑혔
원제
전교
제천
조개
조셉
헌병
축구팀
가리켜
인공위성
조선왕조
구획
김선
렉스
리마
마나
미미
사내
시르
이산
클랜
키드
##af
##렌스
##남면
베르나르
##unction
##ATO
Hen
고창
네임
배기
병과
불로
세간
신의
쓰루
아연
자코
평탄
해냈
##코르
보살상
원산지
AI
RC
강우
기쁨
레프
배드
신대
유다
유족
자성
케이트
텐서
트리오
파파
##du
##MP
부분군
도로는
##ope
Heart
레지스터
김규식
과테
교제
교동
라리
로니
스윙
앞세
에리
우간다
이황
장덕
전멸
추존
파주시
##FS
##평리
##위치
원자핵
발사체
부다페스트
가브리엘
과테말라
WC
매진
박진
산기
손녀
애인
입시
적발
정황
지체
침대
토로
토키
픽처스
##리야
##으면
작품상
이어주
스테인
허드슨
루나
매리
아흐
영천
입술
조제
칼슘
##하임
계승자
후원자
안드로메다
##ship
토착종
Charles
##태평양
AA
end
과다
데드
레트
매끄러운
무자
묻혀
생리
애슬
은신
장신
중개
혼혈
유니버스
안동시
온타리오주
장제스
KS
구르
꺼내
다행
무고
새뮤
소대
앤서니
앨리
조슈
##진구
##전선
209
가로지르
스탠리
오클라호
날카로운
오아시스
구례
네브
닌자
마구
부류
원상
위헌
적십자
##con
##절도사
Champ
스테이트
여우원숭이
신기록
Big
you
동차
루즈
모라
봉우리
상감
접합
코스트
##국적
##록대부
Tri
모반
부관
새겼
석기
음주
작년
장쑤
지아
표트르
휩싸
##ling
##동맹
##두르
이뤄진
갈라져
##ency
계룡
도형
만날
여건
워킹
루스벨트
##etwork
KN
객원
경도
골짜기
다닌
수퍼
앤디
의용
일설
임하
진주시
코뮌
투하
피드
##고로드
##텐셜
지하역
슬로건
Fre
귀속
김치
도약
바울
뷰티
상한
서주
아쉬
애완
외무부
타도
퍼텐셜
후이
##리아스
##aint
무작위
Tom
가부
건륭
납작
너스
로시
리믹스
바비
배척
비둘기
식용
오트
오우
유머
조심
중랑
충칭
피카
##세르
##화경
##렐라
802
치러졌
선제골
사절단
AKB
오메가
네티즌
코호몰로지
mod
po
근방
비싼
습득
어선
얼룩
용사
준주
참패
패권
헌납
##행파
##피카
##센터
##ions
노동력
##ops
하이브리
대중교통
United
##eae
갈릴레오
디비시온
인플레이션
Let
군자
당과
던졌
머무
백악
예금
완비
윤년
이별
이례
잡히
적정
제프리
차명
편제
편안
햇빛
보좌관
홀딩스
민심
병풍
서포터
수시로
우산
파기
포자
해병
##효소
강희제
Association
Ber
강호
검은색
노원
민물
심정
야심
유포
터빈
한창
##훈장
##시브
##조사
##angu
LCK
Not
간결
그란
맡겼
산책
셀레
앨라
열릴
조서
파주
##변속기
유전학
여진족
하이브리드
Dan
Off
cc
거꾸
걸린다
모신
비료
손잡이
외상
직관
포탄
##드레
##주크
##할린
사이먼
조선공산당
##ague
오스카
##ization
석가모니
Sun
Serv
무색
발의
소론
식스
이야
참의원
천지
캐스트
태화
필명
횡령
흥분
다시금
Great
관현악단
라파엘
사간원
미네소타
과자
광업
구독
기운
바보
배향
번갈
베풀
상선
서프랑크
수증
스몰
안중
액세스
오구
원한
팔작
현도
##른베르크
역사학
##ama
재판관
생성물
Arm
##슬라프
멀티미디어
##해살이풀
끝난다
어우
유타
유카
짐승
카슈
피어
##unt
##바지
##느리
해결책
건널
노프
마포구
명왕
사키
아자
일지
타구
호크스
##러진
##매김
국민회
용산구
펠리페
세네갈
di
계엄
기묘
납부
레스터
마스코
미식
버크
복역
봉하
부실
소학교
열쇠
인코딩
자장
카다
##번에
아이치
스테판
움직일
라인업
가해자
##올로기
이데올로기
클러스터
매킨토시
새뮤얼
더러
살짝
쇠고기
승지
죽여
평했
프루
하임
항원
##뛰기
레이더
스테이
그린란드
탐험가
체인지
브로드웨이
Jean
구문
나탈
뉘른베르크
리차
서임
##by
##소문
##타입
##콘드리아
256
대항전
로맨틱
미토콘드리아
농어촌
구부
금동
농축
대인
라울
목동
반점
버티
시원
시의
영락
요즘
이력
최용
추축
##펠러
310
가르쳐
도망치
이바라키
꾸며
반죽
부두
사나
수급
월화
잔디
접전
청계
최남
포츠
구단주
가르시아
1839
오토바이
유가행파
RA
관용
딜런
변모
소작
아뢰
앞둔
야망
양면
와이드
울릉
익산
조경
채색
펠로
합천
##몽골
아이젠
경계선
맥스웰
가두
단국
동자
아츠
예의
용해
웨어
증강
키즈
토록
해트
자리매김
반대파
스트림
보유자
나빠
당당
셀주크
순식
예멘
올레
피사
##양이
공통점
Inter
호소카와
당진
독주
불분
서거
스택
오일
자루
컨텐츠
피닉스
하라
항체
현미경
후미
##산부
##삼문
##링겐
207
음악원
바로크
피츠버그
맥아더
부르주아
거꾸로
Trans
Way
name
per
그럴
금나라
박재
산물
안창호
재차
조병
중일
차림
처장
현과
##뉴기니
게임기
거쳐서
슈퍼스타
대수학
아나톨리아
nm
네이트
농성
몸체
박원
반항
빨강
용수
임계
잉크
커졌
##슈타
##수단
고등교육
사무관
여객기
도라에몽
숨겨진
낭만주의
두꺼운
주고받
PA
복싱
유림
작중
취할
쿼크
##니티
##쓰기
이사벨
마르셀
노르만
8000
차가운
무언가
리자
만점
몹시
사주
순항
이희
전과
##세서
세르게이
범죄자
앨라배
Soci
그물
동호
아디
일선
직물
진언
출세
폴라
따라가
였음을
단자
볼넷
서당
이심
착취
컬렉션
##ule
##VA
##중추부사
타이탄
특별법
1858
팔작지붕
Hot
구루
급성
뒤따
법전
북벌
스기
에트
엘레
추후
회유
흘리
##ring
##트가르트
##거나
##장사
##arm
708
경쟁자
베스트셀러
로빈슨
간판
교지
단역
대의
라카
밀가루
사나이
산티아
승상
쌍성
에두
울주군
인위
자행
지탱
처해
콜드
트란
표출
푸젠
##누마
##융합
마을버스
Lee
비단털
윤치영
펜실베이니아주
하반기
슈투트가르트
MD
Pat
대담
라니
매디슨
수력
아칸
아편
에겐
완만
촛불
캐치
클리어
활자
황폐
##yle
##RI
##사화
통신망
전해졌
합성어
KTX
후지와라
리바운드
비단털쥐
Che
궁주
노란
라가
산청
섬기
연달
주저
태아
페인
##연구
##뜨려
교육감
자유형
집단군
감염증
Af
AE
IF
갖춰
굴복
떠날
사교
서지
신석기
연해
위도
유망
이니
충당
핵융합
##TF
##참찬
포르노
연출가
야쿠르트
Bu
가명
가방
리트
오자
용감
조석
지문
편향
플랑
헤일
##ka
##vent
##프랑
##화산
##찬성
##넌트
##ural
받침돌
그레고리력
집정관
겨루
김연
내재
무루
변종
양서
인승
중용
직사
##ning
##정사
##레이트
##ival
당선자
헤르만
순식간
Sal
가창
레아
매니아
방공
슈트라
오슬로
의복
청문
키릴
행해졌
##테이
##에쓰
##벤션
##브웨
수도회
사무국
6000
벗어난
par
부등식
악곡
오차
외면
이길
잉카
차오
패망
합금
##리드
##능력
##큐어
##댓값
연예계
금강산
장로회
코퍼레이션
이메일
그랬
극소
기행
김덕
매도
백조
신해
아지
유무
처방
체내
캐피
판관
포천
대표단
슈퍼컵
프라이즈
두드러지
조광조
불분명
슈트라우스
가곡
격하
남송
니가타
다비드
세단
승정원
예식
절약
준동
중고
치마
케로
##tor
##비언
##부대
##플렉스
1700
##urch
정해져
크루즈
경부선
바빌로니아
KO
Sum
궁수
날려
매슈
맹활
무비
백악기
번개
부추
생원
서클
정박
채굴
파시스트
리스본
미스터리
분별
아타
외환
이목
잔존
카와
피셔
2022
목포시
겸직
교화
김두
넘겼
생길
위계
주나라
스피커
유년기
맹활약
FS
동백
모함
보직
사각
여대
자처
태우
피살
##자원
##yd
##ional
##olf
##olution
다이빙
크라운
나사
바쿠
발착
분경
아메
텍스
팔꿈치
필두
##iew
##사이클
개화파
기한
블러
상동
샤이
센타
이홍
조장
탄산
패해
##세다
##mus
올라오
1801
교구장
장갑차
NX
공주시
규율
균일
기미
라플
마티
봉황
빈민
상식
서안
시찰
안식
앨버트
영사
웍스
정승
충신
포니
화소
##바리
치료제
340
천도교
컴파일러
해부학
Du
NAD
노엘
노현
농가
디나
부풀
사대부
순천시
의성
포대
폼페이
후루
##타케
##수지
##스타인
유니언
천문단위
스틸러스
친선경기
##IVE
신한은행
브란덴부르크
지자체
경화
등산
미인
브렌
온두
유계
일간
##ren
##방스
##킨슨
스코어
알렉산드로스
아리랑
What
컴파일
로드리게스
온두라스
넘버
베가
상의
튼튼
##즐리
내려와
주머니쥐
영유권
Institute
PL
강진
걸작
공상
국력
군복
도도
라다
미지
유자
증발
증조부
집적
집어
첩보
휘발
##마디
##히메
프로테
한국군
웨이브
여수시
바닷물
콘티넨
마스코트
NBC
교파
교서
도발
이거
이카
자위
지날
질투
초음
##lus
##대전
##쿠르
208
다이노스
국방군
1855
브레멘
이시카와
연금술
##타나베
꽃잎
배아
백지
서위
시진
시미즈
어부
증식
창구
체하
치사
패스트
한민
내세워
Da
UTC
고찰
라라
성품
안철수
착각
카야
##ij
##포타
##군다
##방향
지나친
강력히
##이치로
무사히
과반수
Kh
NL
교훈
기고
기조
라미
모닝
변질
사할린
열세
외척
자릿
필하
현판
화학자
##선언
##OK
국민학교
연속극
테크놀
Blue
코소보
Pop
TS
Wil
가독
객실
논증
덴쇼
도부
리키
마모
멋진
모조
삭스
여럿
옥사
위트
자취
철자
칭했
투신
행보
##지로
##탄두
##촌리
일부러
사무라이
조각상
아오모리
풀려났
무로마치
메소포타
메소포타미아
End
강유
논하
다자
다룰
붕어
안심
열렬
이끼
자질
짐바
취향
튜브
하후
##바도르
데이빗
담당자
사라져
떨어진다
앤드류
South
CV
Elect
매립
모사
여포
완수
유화
임종
자궁
저그
지요
처치
훈족
히노
##디언
##태자
##더링
프랑스와
목적지
##ray
내세웠
AMD
아세틸
끌어올
줄어든
플러그
산티아고
VS
co
괴로
모란
방울
배반
변론
북대
사와
선체
스펜
쏟아
원효
입히
자정
침식
통킹
##일기
##러져
1812
노벨상
쇼핑몰
협동조합
Thomas
당뇨병
Hist
Mil
der
공병
국세
박경
사소
수역
엇갈
왕명
입출
줄일
표제
##티야
##마을
##분열
##ated
단수
됐으나
아스카
애드
의례
저해
체질
쿼터
폐허
풀백
게임즈
베르타
트레이닝
형용사
Ever
HP
Si
다목
대류
디바
브르타
비옥
선인
솔라
실상
실명
팔린
펭귄
풀리
##rid
##정보
##계사
##계약
##어류
##퉁이
##itz
235
데이트
1854
747
다녀왔
페널티킥
Europe
드미트리
사쓰마
브르타뉴
my
국인
김보
불복
상과
이문
이질
출국
캐슬
##ham
##oul
베이시스트
프레슬리
수비대
공군기지
갈라지
시마즈
마그네
매사추세츠주
권익
기판
달력
됩니다
란트
무도
발작
벵골
서점
셔틀
슈미트
아끼
직렬
칠성
컨벤션
##cus
안양시
스트리밍
면담
물류
받치
베라
북측
옥시
잉여
정실
체로
206
사이즈
선거인
에이즈
우에노
소나타
Rem
고바야시
다량
당파
며느리
사생활
아님
자켓
지령
파비
펼친
##rich
##시험
고등학생
기획사
1856
크리에이
펼쳐져
무형문화재
모체
베르트
숙소
아어
이룰
잔해
저질
조동
촉발
폐차
헌종
환율
##일치
##악산
##reet
동맹군
찾아와
머물러
동남쪽
채무자
개그맨
성폭행
손꼽히
다마스쿠스
Alex
Div
Miss
결말
구세
니케
란스
문물
수마
신안군
전조
표절
피처
하지
##테랑
##합성
##atic
##itch
다면서
동거
레몬
모치
바젤
복부
부군
싫어
연화
의주
키리
평방
헤겔
##바퀴
여성주의
기념장
출입문
방위군
North
Gold
개표
버진
엔리케
잠입
형주
##구니
##GB
##젤로
##lement
언론사
출장소
Project
라이프치히
김해시
간호사
마천루
##사우루스
짐바브웨
KA
NATO
금색
니까
변한다
상계
새우
숙명
슈타인
아노
오니
와세다
키타
헬스
##후이
##디드
##화당
##데기
##쿠사
저지른
동아리
에이전트
Free
Mad
sub
고국
구아
루도
묶여
미칠
생화학
악명
업로드
일차
품목
흔들리
##진보
사이언스
다가오
모터사이클
키르기스
Lo
강인
개경
걸프
광시
대타
뚜껑
로큰
릴레이
막강
반입
변해
브리스
석권
소양
에페
엘라
엘비스
오즈
청각
캐스터
흥원
교육학
운전자
세인트루이스
Soul
대명사
SG
경매
다국적
로사
무위
미학
배당
병렬
사가미
산인
양양
올릴
원주시
월남
은밀
의정
줄곧
##코타
##신저
그러면
리그컵
신호장
CoA
지질학
해수욕장
성폭력
가환환
PP
고모
과달
늘려
미트
세토
손님
옥천
외할
장정
전서
처한
쳐서
코마
##보내
##04
##선교
##길준
##샤오
오스트리
1857
한자어
바나나
미주리주
Jack
걸음
극찬
로런
루피
민원
서한
여정
원문
커브
클릭
획기
##ks
##UI
##덱스
1789
##attle
무지개
랴오닝
로큰롤
Back
ret
뉴기니
리안
성행
안상
외손
요직
원단
점진
타선
토유
푸드
향신
확충
##내티
##블릿
페르시
예비역
강릉시
남양주시
자오선
신시내티
종착역
Mat
레나
삭감
소주
양지
오도
율법
절친
튜링
##xt
조선소
225
반대편
This
도망쳤
시그마
Road
서귀포시
Bel
Tim
대입
사귀
생몰
실효
암모
영미
원점
콘스
##르바
##구미
##세우스
##ady
연주회
밝혀져
1849
이노우에
반감기
George
프로모션
Il
ind
라지
문관
반론
발가락
보아
사보이
어사
에볼
오시
와타나베
참수
케리
혼잡
##던트
##클라
##ars
중앙은행
편집장
파푸아뉴기니
교관
세스
셔츠
솜씨
숙박
왕래
점토
중학
키로
하수
##yt
##구나
##알라
전기장
Ste
황도대
God
YG
고승
발판
양군
잔혹
정글
총감
퀸스
페오
##bo
##큐슈
##ita
데이브
##irt
목표물
지하철역
라면서
모자이크
시에라
세미나
베오그라드
Ger
두르
빨라
영수
장강
정오
창씨
친환경
침범
타시
테두리
##이에
##나시
제조사
전해져
대대장
불가피
##irect
Island
오하이오주
Play
곡식
괜찮
다쓰
단서
되풀이
문체
문정
성가
슬리
자부
중등
친한
코모
##티지
##무장
##루즈
##건설
프로방스
오리엔
##에이고
##mann
샌디에이고
개요
구타
레티
망치
머큐
벤피카
빅터
선상
소인
스맥
시제
예보
유창
유충
자키
##날레
##합중국
##ese
실리콘
아드리아
nt
rec
내몽골
매듭
면직
베티
암수
오딘
패치
해지
##레앙
##성경
##탄올
아이파크
##oman
준다는
그래픽스
프레임워크
420
고후
김장
리브
바인
보류
왕릉
위크
유길준
응력
청취
페미니
##대비
##07
##니파
##거성
211
##ada
##uman
인지도
지리산
7000
이준용
회고록
Top
도읍
미자
병단
본거지
산조
싸울
엄정
용지
인삼
정청
집전
퇴진
해킹
##산업
##사유
##방군
1400
브루크
League
함경도
단말기
With
결전
괄호
길러
낭비
능가
니체
등단
사하
수당
안겨
연중
육식
취직
콜린
항생
홍익
##제철
##베인
##덕궁
##웨이트
돌아갈
1815
##ATA
쿠르드
해인사
대제학
미나모토노
결장
경내
관군
길거리
뒤덮
떨쳤
미친다
성현
소박
염두
재화
화음
후베이
##로세서
##변수
강화군
자격증
Franc
스파이더
Cla
She
가선
골라
남단
도적
레비
로바
볼록
산체
억울
위법
이창
중거리
진성
타나
하강
화승
후드
휴일
##nal
##we
##투리
크리스티나
370
1852
Beat
채권자
병자호란
스맥다운
FR
GPS
나쁘
린다
버펄
사부
선단
소크라테스
손목
수만
스플
야코
열람
윈난
자네
전봉
절충
특위
판명
##sy
##자드
물러난
시나노
물려주
DOS
Na
문건
미합중국
발진
성대
유이
이브스
정명
진이
최하
칸트
풀이
##진우
##AE
##니오
##ility
##aceae
전시관
가로질러
빼앗기
자이언트
Sing
Sil
거머
밸브
보우
서역
웨슬리
조시
치킨
팔레
호그
제작진
학술지
##진보당
CL
Light
가세
구전
매질
문수
상환
속국
수레
시발
일면
정일
퀴즈
핵탄두
헤더
##고사
##올리언
##황제
##oun
공식전
##스크림
##ental
##로그램
레인저
Bea
경원
귀인
다쿠
도안
라벨
법제
오릭스
이씨
조현
퇴치
##zy
##IO
가졌으며
레닌그라드
고분군
이회창
BB
COM
Ob
군산시
나기
반정
소피
시차
오웬
잔여
청정
클럭
##och
##포리
##토크
##RNA
##박사
##황색
자본가
엑스박스
휴대폰
조연상
볼프강
규약
금정
뉴멕
독살
로런스
멜라
열악
오보
익산시
종업
주유
축복
해질
호투
##로트
##atus
부르봉
비행사
가요제
희극인
뉴멕시코
Ben
CB
Carl
고을
괘불
만류
맞물
세타
실사
양궁
이부
커리어
코크
##mb
##날드
##커우
##iness
중심핵
국내선
1836
아파치
입법부
비잔틴
상반기
Mr
고관
내란
뉴올리언
다닐
바쳐
불태
사병
접두
직류
징집
춘천시
카파
투기
티저
호로
##por
##port
##평면
1820
중앙아메리카
고지대
메트로폴리
이케다
메트로폴리탄
WHO
경합
냐고
놓치
부전
사미
시시
쓰일
양파
오와
인성
헤임
##바드
##xy
##버터
##림사
##ida
창립자
꽃차례
넓혀
대혁명
망가
모션
바늘
법규
산남
실렸
양정
예프
의인
쿠웨이트
폭주
협곡
화염
##TR
##주사
##시아키
365
변호인
엄청나
Pi
금천
산문
실은
심근
중남
하산
환산
##형제
##작전
##완다
##시아드
212
베이직
관심사
가져가
페이퍼
시달렸
유니버시아드
군마
근위
날리
남아
대머리
무능
베크
복속
본초
애프
정언
##res
##우주
보호관
찾아오
마이크로프
마이크로프로세서
HS
간디
김주
나일
닷컴
라임
모티
보리스
비싸
서약
세제
썼으며
영도
영사관
자갈
접종
투니
##팩스
301
상대론
스케치
Max
향신료
머큐리
Ca
und
김도
루드
순찰
일삼
탁구
##연맹
##컬레이터
에스컬레이터
스케줄
플랑드르
DP
Jon
Lu
동군
변한
부천시
아킬
어학
이만
타일러
트레일
##다보
##코바
아니면
##omb
유니코드
1851
1814
저널리스트
바그다드
Bra
강습
나토
돌고래
동대
롤러
보어
시니어
엔젤
유승
일주
지그
파고
풍요
##yp
##ME
##파스
##피크
##월드
##과학
연대장
1776
트로트
무사시
독재자
재미있
Aut
교재
도치기
부락
승낙
압수
야수
양천
용맹
장승
코린
쿠라
홀수
희미
##도감
##22
##ste
오토모
CIA
곤살
내릴
단양
민생
블레이드
생년
수프
열역학
염화
장론
케이드
타라
##HC
항공편
베르나
오프라인
MPEG
##earch
Richard
아칸소
DL
Just
구가
넓히
달린다
동두
르완다
몰수
불려
불릴
산재
에린
이보
자백
종가
중견
폐하
##OU
##신보
다면체
원정대
통계청
환승역
여주인
원종공신
이완용
백악관
기마
노르트
논리학
메모
상설
스에
양동
이랜드
진심
추밀
##민당
##일체
##울루
올라와
ICBM
카롤루스
알프레드
공학자
근세
김시
미첼
숙련
오우치
우기
종사자
추운
콜린스
트림
한겨
회차
힐베르트
##조류
##adem
외계인
##이즈미
명륜당
네브래스카
ER
PM
돌렸
매기
박자
산술
생쥐
양원
에레
장준
쫓아
천자
학당
호른
효성
##고양이
세계유산
국가원수
주거지
폐기물
서재필
베네딕토
테크놀로지
850
KD
man
군도
먼로
명상
모태
반야
보그
사하라
설리
차차
콘퍼런스
타쿠
테헤
토바
피어스
호화
가치관
예수교
유엔군
테크노
테오도
교학
뉴런
당상
듀스
바하
소서
안면
안톤
종실
종친
철근
축일
친밀
카로
코로
핵분열
##수염
##els
##osa
광주시
카디널
##프랑스
du
trans
거창
나시
맡겨
모교
미러
방호
변증
부식
양극
은폐
제지
제식
직할시
컴필
클로드
했으므로
흐트
##ya
조선조
라이센스
##eter
##umb
올라왔
제주시
Grand
모노이드
Company
토요타
서태지
컴필레이션
경색
곧이어
배워
변조
불쾌
선과
제방
티모
##eb
##우어
##니발
##초프
시트르산
선제후
우두머리
서스펜
종업원
한겨레
Cat
Roy
대강
레저
로망
리타
맞배
버니
서아프리카
스팀
안팎
앵커
일보
족장
캠벨
커리
통솔
함장
##토쿠
##동원
##일즈
##블릭
라이베리아
서비스업
430
440
##ittle
필사본
송파구
ME
거품
끔찍
두터
라쿠
성형
실크
예문관
우타
유상
초계
##오린
##하우스
##공화당
민주공화당
태어날
##ander
1844
크레타
일렉트릭
떠올랐
프론트
리차드
뉴잉
바니
박찬
술라
아말
여호
유골
의제
##간주
##건적
214
##스코리아
후반전
거시
게놈
금관
너희
눌러
데일
동급
따돌
로스트
법상
빌드
시타
접시
칼빈
크메르
트램
하층
활기
후회
##wn
##가요
##unk
스케이트
펼쳐진
글러브
Die
가뭄
되살
렌더링
방학
요가
작자
추장
콘라트
포탑
##리온
아이스크림
Stand
책임지
1793
건국훈장
테헤란
KC
금리
내기
리크
매복
모빌
박세
백운
상회
상층
소르
스킨
양념
어지
이윽
전열
컨퍼런스
피그
##rit
##나주
거주자
##ther
결의안
Records
일진회
그레고리오
이윽고
Nat
격전
듀엣
에인
유세
잡힌
접미사
정에
짝수
처칠
화원
황하
##로마
##동리
##그림
##니츠
##야누스
##장군
##발트
사이공
판매고
베르디
1846
농민군
갑작스럽
FF
ag
가시마
거문
깨지
내림
말려
바스크
용역
조소
조회
한라
흥덕
히바
##빌라이
##ano
못했으며
외교부
트라야누스
가이아
시공간
나리타
부적절
지극히
tvN
Class
경순
관위
논산
맹렬
변성
산정
안기
오인
으러
자각
키트
##실험
##ely
보이즈
##ally
보조금
되돌려
레닌주의
드래곤즈
해수면
델라웨어
##레타리아
프롤레타리아
추축국
자릿수
DA
Ha
가모
라스트
바투
산동
수구
안데스
유보
통감
##비에
##거루
##즈미
386
##ipp
전철역
수영장
유성구
플루토
Im
if
로컬
문성
미요시
산마
샤르
쌍용
인대
재보
재회
진위
탄두
히말라
##oft
##징어
##메데스
##열대
##촌동
##급시
##arg
에이브
참전하
파르마
클레어
영장류
감마선
컨설팅
First
Jap
가령
공문
기일
남해군
당장
대여
동체
동률
본존
사일
사악
야권
양산시
처마
하세
허버트
##스틱
##제사
##여지
##엽수
##랄드
238
조각가
플루오린
지석묘
뉴잉글랜드
히말라야
EN
구인
기피
날아가
사생
사학자
산신
샤오
소량
손수
수이
승률
우디
유루
젤리
##바오
##다발
바이마르
조합원
그레이엄
익스플로
문하시
사다하루
##EEE
스러워
라그랑
익스플로러
BO
SW
갑오
교인
구비
나한
노마
논산시
도표
마태
미디
볼드
부끄
서체
안주
에든
에픽
장지
코우
쿠시
##onic
401
##ript
루이즈
1837
프라임
바뀐다
백두산
호찌민
에든버러
Vf
거병
메드
빛깔
싸운
오른다
유위
이달
평의원
핵산
##비츠
##루크
##림동
그러다가
중앙선
290
프리츠
군주제
기울였
버지니아주
Christian
system
로페스
청문회
생몰년
뉴올리언스
Que
고층
만물
무주
무겁
문중
미켈
세밀
수주
특명
페드로
항전
행선
##스퍼
##세데스
##불명
##매기
##ince
데뷔작
지배했
심리학자
메르세데스
만장일치
공석
그늘
두스
마른
목장
미스코리아
브람
사산
사다리
선데이
세도
스펙
신병
쐐기
에뮬
유틸
의논
중건
쿠마
호날
##ford
##들였
##스톤
##CO
##나들
##남동
##질량
221
480
게이오
지장보살
파스칼
대각선
유틸리티
호날두
Power
갇혀
결집
경덕왕
국문
규합
농담
던전
마늘
면하
무공
미겔
박용
범람
상투
스쿼
지치
카리스
트론
포탈
##재판
##주석
##여왕
##ird
음식점
FBI
GL
Law
가우스
균등
노라
딱딱
마흐
무진
변혁
사체
양평군
에코
완산
원만
입혔
천구
초당
충주시
한하
##더릭
##노스아이
부에노스아이
부에노스아이레스
Di
IEEE
bl
경마
남경
배트
보국
붉은색
블랑
악의
여관
이석
익히
증축
침수
파피
피질
행운
라이드
Str
영등포구
Society
광종
귀순
랜덤
리나
마피아
세울
장경
카노
캄파니아
포상
할구
황위
##ek
##플레
이루어질
2500
산업단지
##obal
오이타
붙잡혀
서대문구
Ju
Tor
군기
니치
디에고
떠돌
성자
영위
예일
위즈
조우
충동
카보
코바
쿠빌라이
평년
##타니아
##하늘
##면적
##해방군
##범죄
인민해방군
##over
아우구스트
불러일으켰
Science
브릿지
스펜서
강했
메신저
상이
전범
지반
지브
페터
페가
##회로
##개혁
##리아누스
세웠으며
두드러진
석회암
막시밀리
안중근
Bas
CA
ED
글렌
기통
남포
대등
모피
부기
사파
습니까
안후이
암스트
앙상
정해졌
조어
죽일
총학생
탄성
현수
##뜨린
##빨리
##레이즈
중앙일보
기울이
북극해
자카르타
재결합
안티오키아
북대서양
저질렀
총학생회
EF
감기
강국
기공
김우
덕수
로보
버트
악역
안재
에다가
은평
입찰
자석
초회
츠카
클루
타오
튀어나
##ues
##리쿠
##urus
기타큐슈
보컬리스트
갈릴레이
시즈오카현
카디널스
날렸
미끄
미우라
박태
북해
빈센트
세일러
소치
약품
요나라
인계
조비
캅카스
##of
##상어
##슐리
##라이스
##amil
프리킥
물리쳤
1835
Sport
선보인
유기체
수백만
미카엘
##그라운드
몽고메리
후유증
결투
과감
끼친
디펜
메콩
멘델
벤츠
블러드
섹션
속초
신숙
양위
음양
이색
##코비치
##래시
##reat
나와서
블루어
대리석
프린터
1623
카스텔
바닷가
헬레니즘
Hel
강자
군량
남아시아
논평
달콤
도보
돗토리
로타
사드
온전
임베
포섭
##ira
##무트
##부미
##네르
##운수
##분투
##ury
초대칭
1832
인류학
혼합물
##ING
후쿠시마현
태그팀
##UCN
봉수대
켄터키주
임베디드
Jul
Mont
not
공훈
낙랑
능숙
로만
루카스
반달
봉분
불능
사탄
워낙
원사
적법
칼레
호시
화이
##락부
##높이
학생회
사라진다
1842
마쓰모토
선거인단
CT
Long
SQL
겨냥
규장
근간
김학
니트
다채
박동
시력
우니
이학
잡혔
재물
직각
천리
첫날
타키
푸틴
##인구
##스트림
브루노
구미시
헬싱키
DO
감축
골절
깊숙
담수
라사
리시
마초
변함
섞인
실책
쓰리
와이어
윤곽
저스틴
제비
출품
캡틴
허물
##ca
##지오
##평동
##YP
##경찰
##게이트
##더지
##입자
##alk
이주민
다카하시
무인역
샌드위치
일렉트로닉
포식자
IUCN
do
강좌
국산
델리
도매
명동
빅뱅
아약
안시
엄지
왈라
위축
유미
제타
초판
프록
현급시
후추
##자유
##ware
##테일
##서기
##led
쇼트트랙
거제시
로베르토
스태프
콜럼버스
격침
급기
남궁
두뇌
뒤이
록히드
마거
사스
소아시아
예편
오닐
유원
적힌
정역
창덕궁
타파
탈피
터너
필리스
##보라
##네프
##노세키
##링크
##뮬러
올라갈
아우르
나왔으며
합병증
1853
핸드볼
York
감당
고스트
군림
단사
말소
박중
버밍
춘계
친화
클라인
혈압
##ta
##고도
##광사
##무지
##라르
##렁이
여러분
215
스위트
도망쳐
미시간주
호흡기
이리하여
챌린저
로버츠
즐거움
SR
TBC
공경
노름
도끼
맞닿
부양
어둡
엠블
요시아키
우표
이코
임사
평하
학도
흑색
흡연
히코
##히데
독립선언
264
드러난다
당했으며
Arch
1392
기생충
의병장
Fla
계양
귀여
네바다
농협
래리
레코딩
벅스
북송
성교
수질
수메르
위배
장차
템플
퇴출
트레인
휘트
##회원
야마다
히로부미
##ART
합쳐서
깨달음
General
토스카나
게오르기
up
과세
국면
버퍼
북마
성북구
시영
역모
왕좌
원생
인척
주이
중신
##기둥
대사간
요리토모
오브젝트
USA
디아스
요금소
리치먼드
이성질체
앙상블
TA
건안
관개
명장
민선
북반구
불문
수문
앞바다
양분
에이지
영문학
우이
윗면
접목
정여
죄인
지카
청화
코딩
##레븐
##다임
##그램
##학파
##벌리
##패드
##눌프
라고도
아르눌프
혁명군
베르사유
##ister
Young
연습생
이마가와
패러다임
어드밴
서바이벌
아약스
el
과선교
덧셈
사조
수선
신궁
알마
역행
오랑
오나라
헤센
##시게
##암사
Street
알아차
펼쳐지
Sound
구시
그간
도화
리튬
바바
변했
악어
캔디
환초
##레틱스
##코인
##마니
##은사
이유로
야구단
내려온
크리스틴
파라오
고고학자
카지노
애슬레틱스
KST
Mo
교명
구명
굳이
깁슨
로코
리언
리서
마틸
만수
목화
안락
유민
유독
인먼
주포
청일
태블릿
팩토리
표어
현악
##정제
##계리
##09
한다며
연구실
스케일
디렉터
##formation
어리석
공성전
건널목
IB
ha
가니
결여
경산
고조선
구애
무정부
선별
스톨
승선
식이
이베리아
진원
출격
테이크
##레프
##IE
##반정
##ider
남북조
Spec
물리학상
콘스탄티누스
all
오비탈
관음보살
미성년
암스트롱
고독
기네스
꾸몄
낙타
모잠
반향
성제
실베
흰개미
1300
##ava
통계학
대법원장
디렉터리
모잠비크
Are
OK
Sn
간지
결렬
남반구
놓였
대방
벗겨
보두
생장
성부
앞뒤
열거
울트라
으뜸
이세이
제고
지킬
팬아
평상시
홍명
##레우스
##가라
선수상
야구부
Church
치료법
생물학자
만주족
보르도
무궁화호
라쿠텐
Port
Rain
Ter
가결
공덕
궁내
녹말
대정
대용
따지
미추
바야
브롱
서곡
솔직
스틱
아쉽
약수
투병
페테르
흉내
##ient
##르카
##MC
관찰자
Show
Green
직사각
sup
가온
교복
득실
마취
밑면
배타
시역
엘리스
왕당
욕계
월경
캥거루
커넥
택지
학급
허구
호지
호국
히다
##르스크
##서구
##득점
##든가
세운다
1795
소용돌이
Dis
May
OP
건네
구면
다윗
만기
발터
석재
아산시
은지
차역
총생
카일
토프
특공
페인트
항문
후견
##21
##혜석
##개명
##둘러
##arch
##lev
231
트로츠키
어도비
Web
아미타불
아브라함
강구
걸스
끼워
달라이
독실
로디
문어
본능
봐야
성간
수강
스완
연하
요도
이구
주군
체임
출사
##이상
##소니
##ison
보호법
바로잡
정착지
개척자
Joseph
조선왕조실록
PK
us
교감
무소
박인
배영
새해
숭실
애기
우대
임실
착한
치밀
친히
카츠
하카타
##레미
스타인
##ets
방법론
##리오스
1847
건국대
아나키스트
##anguage
GD
Network
격상
고해
납품
대소
리저
마고
무찌
미녀
아드리
오호
원곡
이한
인산화
히나
##백색
영화관
들어선
##ush
선언문
하이델
대항해
강대국
입출력
European
여주인공
마거릿
남로
도나
리츠
사향
사옥
심법
율령
제헌
좌천
탄력
토피
폐교
##bit
##ied
##yth
##WS
##뉴스
크리스탈
여행자
행해진
무라카미
##gram
대관식
유목민
개개인
사천왕
상파울루
디나모
Jour
Ra
RP
결탁
노카
누마
북인
소선거구
스쿠
아역
열기
최성기
코이
퀘이
포교
피쳐
한니발
후면
##민정
##ico
##ouble
자유민주
1845
도망가
노브고로드
창씨개명
ft
고요
던진
루손
수번뇌
암초
엠마
연어
요셉
을수록
이설
자의
켈빈
킬러
터뜨리
형무소
##ias
##호크
##las
돌아간다
일제히
제시카
예비군
합쳐져
부위원장
글리제
급속도
노스캐롤라이나주
다행히
수마트라
브람스
Ba
log
가전
공보
광동
권투
기린
내수
능하
도량
북베트남
불길
셀룰
장서
직권
천정
칼륨
함부로
해주
핵실험
헬렌
##사랑
유럽연합
게이밍
항구역
오카다
##oney
LCD
항소심
##OVE
비정규
Bad
Dig
Pan
Soc
Sant
내역
동아프리카
마코토
명중
변천
에런
원술
으론
장이
정직
지검
탄수
택하
포뮬러
힘쓰
##실론
##자나
##구멍
아이작
돌아올
정확도
여객선
보였으나
1831
안드레
나카노
1791
##ible
포위망
Conc
태극기
하동군
가오슝
ROM
각광
고는
교내
배지
배울
비방
손쉽
쇠약
의대
인스
즐겼
책정
총영
칠곡
키아
터스
하쿠
홍백
화풍
##데냐
##alth
모델링
분류학
출판물
##ople
재판장
제품군
1841
청구인
가나자와
Boy
점성가
전망대
사르데냐
##타고라스
끌려가
아쿠아
주세페
다닌다
Fil
Gra
Jr
JC
결실
관아
국무원
기권
내구
도정
동맥
리지
모기
모였
벨벳
부엌
새기
애호
약학
왕녀
원균
총수
충고
탄환
피자
휴먼
##정변
##의금
##arth
부사장
##orean
White
호기심
가야금
유공자
항생제
맞배지붕
House
더빙
드니
라프
린네
보훈
부트
애매
울루
월북
이등
전곡
좌랑
주상
키워드
풍기
필살
하츠
헬로
##line
##광선
##GC
우승컵
##rew
스타드
Station
1597
돌아와서
개찰기
사이클론
예언자
지평선
제니퍼
대주주
Leg
class
개축
교주
궁예
나혜석
담임
당분
로저스
매춘
성조
옥타
이각
일직
채집
청했
총국
코일
쿠루
펀치
한꺼
허목
##03
##토바
##UT
##가키
##WA
생산자
사법부
평택시
Party
Peter
Japan
한꺼번에
How
ant
갤러
괴팅
구룡
군위
노골
농작
니즈
만리
버시
새턴
스팅
실태
옹진군
우랄
조던
조율
지소
팀장
포스코
풍수
허들
##ness
##지스터
##OCA
##천년
##호르
##모습
지방도
건너편
넘어서
플래닛
비로자나
마운틴
시어터
모국어
Battle
cell
kW
김문
나날
노다
니카라
미완
박현
발췌
사계
설과
어쨌
의왕
천명
쿠사
티무르
헌제
혼돈
##스레
##RC
##러기
메이플
##str
접근성
고문서
트랜지스터
개막식
순교자
스텔스
하시모토
롬바르디아
니카라과
Over
gen
갑신
결단
기스
도난
디스코
루머
바란다
소정
술집
엉덩이
인문학
재주
총살
최치
트리스
틈타
하카
핵폭탄
##go
##직할시
유명세
자치현
##rib
가져갔
##슬라브
Prot
가이우스
시게루
갑작스런
케로로
Fed
Luc
구라
길버트
남조선
로동
미에
부화
살피
소포
야만
에히메
증원
차분
해럴드
##츠부르크
##처럼
##든지
##스트리트
223
레이건
항공대
언어학자
프리큐어
개최지
올라온
프레더릭
특이점
조지아주
바빌론
수증기
양서류
냈으며
달마
리포트
뮐러
버스터
베아
수족
스텐
시온
신관
여생
조엘
조너
포인
하디
##재단
##ym
##니에
##inus
222
다이나
나가토
동일시
전동기
클레멘스
무너졌
유격대
720
내시
데인
사목
수은
아토
알론
에나
옥상
육박
정현
조제프
출정
##팔렌
1806
757
적절히
트루먼
나눈다
BMW
초전도
Baby
브루크너
보두앵
BR
Camp
Get
Jan
are
굶주
금상
기욤
꾸미
다지
로베르트
리퍼
바덴
베테랑
아민
알비
엘프
이철
종단
지층
카툰
캐럴
파격
한가
##버라
##씨식물
##WC
사무엘
유니온
1792
이치로
세르비아인
Edward
루터교
실린더
교란
로지
로제
리노
리하르트
멘토
불평
비욘
수화
순정
싱크
안건
인회
재빨리
족제비
철기
토비
토의
필기
핑계
할로
합천군
행한
향수
헤이스
황보
##ger
##나비
##천국
##모자
##메트
##컨드
##ines
돌아간
건너갔
헤이룽
서기장
유물론
##프리드
프렌즈
으리라
궁수자리
산체스
Und
간쑤
개년
광서
광화문
구운
극좌
내게
도색
드레이크
사보
선덕
소도
애벌레
우도
정공
지워
지팡이
집사
청중
캔터
테살
폴로
플린
회군
효모
##크리
##루리아
##데오
##볼트
##agement
은행나무
동북부
콜라보
정몽주
추밀원
급기야
총생산
Dep
Gar
강타
교포
군락
나바
롤리
신명
즉흥
탄광
탈리
탈옥
통도사
판다
##자락
##니엄
##섬유
연구관
태양광
토론회
1798
##ense
파르티아
수수료
엔지니어링
카를로만
그래미상
김유신
시우바
Mem
OC
da
관원
기교
느슨
담장
덩굴
돌핀
리온
매튜
명지
보육
봉작
비참
새천년
세컨드
양재
이게
콤비
크라스
태상
파블로
페데
해동
##05
##루브
##삼촌
음악회
항공우주
계약서
아르바이트
##uter
오르간
후쿠이
유학생
포위전
빼앗겼
진흥왕
##ruct
신숙주
격화
과부
닛산
당사
로어
무가
무패
발열
변방
비키
아호
열풍
용문
윈드
진천
코넬
크릭
폰트
##ny
##전쟁
##KA
1100
그리드
##idd
방문객
비트코인
가입자
겨울철
프린세스
Real
무너져
조너선
Imp
RD
Ul
가변
데쓰
도자
반민
베다
북상
분담
블룸
비어
센다
악당
어쿠스
읍성
이계
잊혀
장령
진구
호전
##팽이
##oud
234
스타즈
기본법
식물원
공양왕
루키우스
페더레이션
막시밀리안
어쿠스틱
Aug
HE
간파
고압
관저
노하
묘호
보츠
상권
승전
우미
이브라
장구
키웠
헤지
환기
황성
##bert
##나단
##마뉴
##심원
한국독립
레이어
통합진보당
1821
##ather
김종필
샤를마뉴
성명서
들어와서
서남쪽
한국독립당
Land
MIT
RE
강가
구자
금기
난쟁이
레크
서강
소탕
수서
압송
역동
윈터
장항
재심
줄였
철원
카멜
편모
포구
##디우스
##노벨라
##퓨터
텔레노벨라
교토부
1593
Commun
데려가
조용히
플루토늄
Fin
Little
군집
김은
두더지
무쓰
미타
쇼팽
아레
어진
엿볼
호치
##지먼트
##전차
##전기
##하워
##가야
##피에르
##ona
자동변속기
열렸으며
매니지먼트
리얼리티
비지니스
아이젠하워
Type
UK
견습
균열
담양
동프랑크
랜디
물병
반납
부원
부녀
송이
심왕
쌓여
앙드레
얼터
연일
욕심
이베이
카인
페레
표상
항모
홍무
화북
##모닉
수도사
어려울
##ester
엘리엇
국무부
프라이드
마그마
아세트
미야기현
농작물
FTA
River
Sub
imp
pre
관대
구석기
대열
마왕
브론
생포
슬러
어쩌
엘튼
유시
제보
첨부
추석
치수
코페르
타고
팔려
패퇴
현충
##오드
##루엔
##블린
255
기독교인
주제가
불렀으며
거느렸
모니터링
허정숙
구청장
Game
mi
고창군
광경
괴뢰
굴욕
나니
나방
도큐
만연
명주
분장
위태
이형
출병
합장
헐리
##적분
##등기
##빼미
그려지
주교좌
피에트로
Gi
Lab
감탄
공평
노화
니카
마신
만경
망루
성내
정시
지단
지난다
최규
최충
출항
투사
플뢰
호적
##스텐
##umber
통신부
한정판
김종직
배포판
이지스
Frank
아우구스
NK
고취
괴멸
무예
문교
미숙
보나파
수배
신구
앙주
어판
에세이
영성
이크
증류
지어
총체
##uel
##누아
##싸움
민족주의자
이론가
나가노
내려갔
은하단
1843
1794
시킨다는
동북쪽
동대문구
기뻐하
헤이룽장
보나파르트
AH
Aust
Bill
Saint
공해
권하
대적
두부
바사
반증
방한
범용
습도
요아
이족
자존
추위
페레스
현청
##처리
##쳐서
##얼빈
##elop
받아들인
1790
1799
잠재력
보라색
중서부
거머쥐
어드밴스
리서치
Run
거액
게일
계투
공직자
늘렸
덤불
만찬
빌미
서보
서품
신작
약제
원가
이효
청교도
치른다
후난
##lish
##다스
##정대부
##ora
239
1810
노원구
미식축구
최치원
Cry
Fest
LIVE
TG
YM
no
구석
균류
김세
딸린
마도
머피
모후
사흘
셰퍼드
시경
어라
열망
오마
원화
음소
이연
진하
체리
카펠
카렐
캄포
컵스
화교
##burg
##uf
##lad
다시피
##ents
State
도쿠시마
분화구
제노바
병마절도사
클라이맥스
Service
에인절
Hal
cl
val
국문학
도나우
보디
사연
손바닥
수라
시료
안데르
언젠
옥개
이트
출제
커져
키미
포레스트
해머
화전
##재란
##사병
##옹주
##즐랜드
알렉세이
##ARD
빠져나가
참모장
혈액형
정유재란
Hall
Sur
Year
국지
기근
까치
느라
니스트
만슈
만능
메로
쌍방울
아그
야행성
워스
원성
유관
정태
정중
제법
제이크
총알
퀸즐랜드
테드
티르
##ios
##BL
233
232
정착민
사카모토
트레이너
외무성
단기간
타지키스탄
##정보부
Home
Pal
고드
기노
돌풍
모질
문맥
비핵
비긴
씨름
양구
오징어
완투
외가
잇달
정병
철로
치중
한서
현명
후시
##연의
##고트
##TO
##니다드
트리니다드
390
오리건
Ann
저작물
콘스탄티노플
시흥시
초고층
Louis
Champion
모조리
##의금부사
Ir
SI
fl
개전
걸치
견지
고하
고갈
공녀
귀양
기주
로널드
막아내
매드
박주
반구
방탄
봉헌
소노
소마
슐레
영종
와해
외동
유익
윤종
은상
이안
장보
코레
하모니
##bor
##gen
##대성
##티어
##하스
##서면
##시계
##핵생물
##케스
##뿔소
대학살
여러해살이풀
권력자
브루나이
##코프스키
쓰러져
오를레앙
화순군
무서운
왕당파
비핵화
950
Plan
Ros
reg
궤멸
기악
김나
나투
논설
누에
더라
무왕
미로
바일
수난
수혈
의종
이뤘
조력
주경
카토
코니
피루브
##동면
##15
##omen
초등학생
프리드
계약금
집합론
##하마드
교직원
다이스케
라플라스
OF
각별
다각형
도파
독소
돼서
두껍
롤플레
멜론
미코
산투스
성채
솔트
아일
에타
엡실론
올빼미
정강
찬탈
참배
케스
퇴사
하얼빈
##부스
경기력
시설물
폴란드인
검사장
레오나르
경비대
영동군
조르주
아가씨
반공주의
MLB
롤플레잉
car
귀향
그람
급습
깜짝
낙태
덕흥
매월
미모
본디
북제
스커
알베르트
에밀리
원한다
잠비아
절대로
젠더
초석
최경
코인
테슬라
히브
##08
프로이트
중앙정보부
드러난
천연가스
근본번뇌
언더그라운드
##브레히트
낙하산
맞대결
발자국
Bur
Korean
mg
가디언
경이
고제
관공
국고
기시
무거
반열
아열대
양손
완도군
저당
지병
총액
패트리
하순
호감
홀드
후버
##무실
##시카
##글러
##링거
##패스
사회부
국민회의
##ington
연방군
표준어
올랐으나
다카시
1805
##other
Doc
UP
걸맞
경수
니콘
단판
도지사
미오
미망
미안
민가
벽면
아강
윤휴
컨디션
콜리
함의
해커
흡입
##박이
지원자
228
##ograph
태평천국
원정군
640
부활절
에르난
진정한
서북쪽
아브루
잇따라
계란
라티
변장
슬퍼
에탄올
올랭
외화
웰스
일간지
전란
주스
취한다
코지
##ique
##레반
##네오
##투르
##데일
##던지기
##콥스키
216
##oma
##ures
유전체
플라자
##리어스
경부고속도로
남원시
도네츠크
카다피
Down
골수
디온
마수
말린
목걸이
몬트
몬태
비크
사성
살균
유감
의성군
준하
집현
태워
퇴화
합산
해류
##ker
##웨스트
##개발
생산력
##cher
하이웨이
찾아왔
나카모리
저지르
모터쇼
이오니아
인디애나주
성동구
건륭제
필하모닉
언젠가
Dec
ob
골자
광택
권세
김혜
김석
보천
여과
유재
잔치
전량
초식
통찰
합방
헤엄
호이
##mas
##바람
##어냈
##거슨
217
요시카
660
모여서
1824
1763
##ugh
석가여래
TOP
러서는
뉴클레오타이드
KR
Ol
고증
궤간
라빈
레일리
려다
명절
몸집
발송
분양
석상
선회
습성
약정
음경
재원
전갈
직함
춤추
커티스
트인
특례
##gon
##TN
##돈나
프레디
받아들일
1833
460
1813
테크니
글리세
미네소타주
집어넣
산마리노
알론소
피루브산
min
강아지
걸로
경치
경감
나츠
대뇌
마한
무안군
사극
살상
슬픈
심슨
여긴다
연유
인현
장조
제례
즐거운
지뢰
청군
체첸
추궁
포진
포즈
현령
호엔
##ious
##봉사
중앙아프리카
경향신문
that
기장군
소선거구제
Nt
nd
갖가지
계명
교묘
국명
넥스트
도기
디디
메이트
민진
본적
본당
브이
신빙
알브레히트
액수
액티브
윤영
의금
일류
태세
피타고라스
향한다
호러
홍대
##고시
##가하라
##HD
##iter
마음대로
오리올
가로막
프란시스
노트북
편의점
영등포
에두아르
코페르니
LOVE
sk
개리
드롭
레너드
몰라
문항
버즈
벙커
상피
서아시아
소란
수렵
아픔
연좌
윤회
이삭
자막
적재
쪼개
타코
퇴계
판별
학창
한방
한참
##정권
##기술
##더니즘
219
내각총리
410
엑스선
1636
돌려주
투르크메니
끌어들이
플리머스
압둘라
최남단
로런츠
버밍엄
내각총리대신
투르크메니스탄
과수
돋보이
만네
버거
본기
수아
아워
연임
이로
이견
저수지
직제
패미
홍준
히치
##오루
##14
##마일
##NS
##쿠젠
다카라
기후현
1804
준다고
1796
브레인
##actor
베른하르트
Lov
강판
군비
까다
낭독
동티
마자
면접
반일
배설
보문
분홍색
선법
성찬
슈바
슬럼
억류
예속
요네
이매
전액
춘향
토토
팔각
페드
포브스
##fin
##포항
##네소스
##코스트
##댄스
혁명가
움직인다
군단장
그리스도교
1783
기부금
저널리즘
돼지고기
통영시
급사
담화
로젠
매번
모를
바타
발광
발주
비호
석호
선지
수훈
우쓰
유폐
은둔
콘월
테트라
호박
홍천
##토끼
##osp
연장선
레인보
바실리
Global
유태인
콘티넨털
Dem
Ray
각운동
관서
군국
넷플
당명
묘법
버릴
벨레
분대
에테르
온실
울음
조모
쫓아내
차우
청탁
추월
치가
친목
카잔
하야시
##신기
##oria
문화사
가까스로
터키어
재정난
1818
737
쓰여졌
플라스마
테네시주
넷플릭스
Del
out
관입
낙엽
달렸
밤하늘
비니
세실
쇼펜하
스즈
알칼리
웨이트
이덕
점하
정맥
착안
찬스
총지
케도
타블로
트러
현관
희박
##담회
##NT
##교동
클라라
1819
작사가
1453
시아파
쫓겨나
부제학
Corpor
관동군
Radio
폼페이우스
쇼펜하우어
간소
고택
국과
끊이
노미
려다가
박기
부탄
브리즈
삼거리
세베
열광
웅장
음역
접경
중첩
초보
평신
픽션
혹평
회부
##zz
##MI
##25
##생명
##룩스
##살바도르
스트라스
##ima
네덜란드어
Contr
오카자키
쓰여져
##ission
무신론
취약점
GPU
스테파노
팬아메리칸
강진군
경구
고부
고운
나눔
레르
레프트
부윤
상체
세관
양평
어기
청진
화신
##이나
##보레
##다람쥐
##티보
##제곱
##마타
##탐정
##캐스트
만화책
평화상
##트로피
1598
헤르베르트
콘스탄티노스
세키가하라
심포니
에트루리아
눈부
대세
마레
보손
상시
세탁
소망
시성
안달
어간
완주군
웅진
이랑
절터
정년
조참
종주
척탄
철교
추봉
태안
투데이
한마디
##성면
##운전
##슬란
##ering
카운터
스키타이
동의어
##ertain
사법연수
가속기
정사각형
브라이언트
남한산성
삼국지연의
중공군
남아공
사법연수원
EOS
Mov
cent
관방
구한다
동천
랭커
선더
성층
암벽
에니
연사
최북
토사
틀리
피르
할양
후왕
##리얼
##곡선
##살라
##갱이
크리스천
1809
Cons
밀리미터
황태후
Research
캔자스주
520
Jac
MR
OVA
pe
가봉
계파
금산군
뇌졸
미묘
생김
수뇌
아속
아핀
완주
조만
직구
컬링
##수산부
##aria
218
프로그레
스코트
##스티안
That
복잡도
코미디언
권위주의
로렌초
시모노세키
창업자
##중국해
구스타브
리히텐
시부야
캄파니아주
각운동량
Mill
RPG
Sl
Sol
function
강물
박승
보은
비기
송진우
수의
엔트로피
옵티
운문
이면
재귀
폐간
폭우
후신
##오세
##슈티
##니크
##쓰카
행정관
스트라
Union
플래그
플랜트
밀어내
싫어하
##루엔자
감명
고작
공물
녀석
단호
마조
문묘
박제
벚꽃
숙성
시왕
어이
외삼촌
유실
제학
준위
지터
최순
코라
쿠릴
토고
품계
합전
향리
##유철도
##06
##사회
##케라
##orld
정보국
공사관
찾아온
사우디
히로시마현
라이온스
최적화
안성시
##미사일
이규완
DFB
일본국유철도
앨라배마주
마그네슘
탄수화물
냉동
다라
도승지
뱀파이어
시판
신승
오미야
월급
이도
조그
청도
판문
해자
헥타르
호골
##ram
##비어
##버섯
##전하
##18
##호프
##외과
지켜야
조기어류
김포시
마에다
키르기스스탄
return
아우구스투스
Kim
Lin
RO
바이스
바레인
벌어들
부총
불펜
섬멸
성녀
시구
쑨원
아타리
여긴
오목
이천
전집
정다
존엄
칼초
콘셉
투아
판도
패드
포틀랜드
##이인
##전리
##코로
##깨비
아이유
이해관계
##aker
1803
공화주의
##ethod
##그래피
##conom
박중양
비정규직
올랭피크
코페르니쿠스
프로그레시브
DE
경멸
구토
동면
마마
버락
버블
범어사
베버
불순
뿌려
스퍼
앞당
유예
인신
점심
주술
증여
지회
청풍
친다
##산읍
##라나
##경궁
이즈모
늘어난
해설자
inter
##III
무척추
카네기
사탕수수
LTE
Sim
고이즈미
다승
동복
밀교
산간
선분
센스
소공
수류
안다
어딘
여전
여장
자력
적혈구
정산
제각
중학생
토드
허영
형광
##ua
##장어
카이저
노동자당
##ift
이와테
상세히
조교수
보행자
미망인
홍준표
Like
Mot
고군
길목
데메
독려
몽구스
변의
수첩
심플
양태
원판
잡스
존상
주앙
증서
촉한
칸타
커트
파사
평창군
품류
현생
호나우
혹독
흑사병
##my
##ges
##미오
##폰네소스
Mach
아틀라스
Academ
앞장섰
스포르팅
펠로폰네소스
크리에이티브
규장각
But
Fire
구보
그로스
난입
누각
대광
동관
땅콩
무당
밀정
상향
생제르
수찬
알렌
양명
연천군
유혈
윤상
입안
잡음
정나라
천적
철원군
쿠리
편하
##ba
##24
##임수
##공간
##현실
프로파
에이커
에드먼드
##하이머
내세운
진도군
##ference
해남군
엄밀히
생제르맹
Hz
JP
Mk
Mel
고우
공지
나나
나시오
변속기
생사
서산시
선서
소토
속씨식물
수려
신안
실황
양주군
에노
욕설
우트
우사
이대
이교도
트롤
훔쳐
##바꿈
##HS
##톱스
우리나라
##edia
##리오카
1808
헤이그
그리스도인
명백히
전년도
샘플링
비엔나
서스펜션
집현전
리히텐슈타인
##케라톱스
나시오날
Ga
Mnet
mac
rep
맞섰
비약
서드
수차
신겐
오기
의리
이국
자폐
정대
창안
침착
틈새
피시
한류
홉킨스
##연대
##지대
##전력
##에리
##시간
##시우스
후반부
##ape
##iff
인플루엔자
수양대군
Henry
루르
루가
맛보
명창
뱅크스
부이
부코바
시주
어필
예우
장력
정은
지드
지토
충선
키노
티나
페론
해금
##테롤
##당류
##17
##반트
##하이드
조직원
##ette
지도력
보호자
환경부
하이든
움직여
중대장
해산물
빼앗긴
진동수
해적단
외할아버지
EV
Wr
간염
갑판
도고
동족
멤피스
북면
분쇄
사죄
살림
요세
운석
원지
전광
전륜
천태
쿠페
타다
파트리
포에
##off
##자위대
##승람
##리가
##흐트
프로펠러
독립국
찾아보
예산군
신인왕
클레오
BSD
블리자드
알베르토
글래스고
최하위
아브루초
Ep
IEC
Li
김한
능통
루아
못지
물의
미신
미스트
박준
병영
비스트
서천
승마
승단
실로
연골
우화
육아
조위
조나단
치뤄
표결
##양동
##어난
##피오
##금속
##투안
##청정
249
226
263
좋아했
민속문화재
원내대표
YMCA
Raw
Sat
가한
권영
근연
래드
민자
신영
야자
야채
유즈
융기
인출
자객
쟁점
주어
차드
칭기
탈선
트랩
티니
파드
포체
하버
한도
##티우스
##로아
##가슴
##니우스
##키타
가까웠
모노레일
브래들리
Technology
암모니아
사생아
레인보우
척탄병
Dist
Tu
op
개간
경학
골목
궁지
김봉
다방
당기
로움
면은
미움
밀로
부안
색조
셀러
쇼난
시암
신년
연마
일인
채팅
펄스
##바타
##와라
##UM
##카테
##시설
##너티브
리그전
지방관
227
Story
세포막
미술가
달성군
출생지
512
540
1816
와이파이
현저히
마르티네스
중합효소
카테고리
Martin
집적회로
페가수스
얼터너티브
DX
POS
id
pol
교착
그린다
급부
김천시
노량
대흥
독신
돌궐
마돈나
미약
반승
아모
아명
안구
어인
에메
오수
잎자루
자락
제원
주오
주공
즐겁
##미드
##행사
##는점
##데하이드
##ales
404
기념식
Child
##aven
1834
대장경
동명이인
목격자
ARM
느낀다
불명예
클랜시
Cur
East
가자
난간
무녀
반원
방랑
산불
서던
수작
아람
앨버
얼스터
여가
은사
재야
좀처럼
주필
출루
타가
톨킨
##vis
##복음
영화사
반대쪽
기념사업
스테레오
베르그
요리사
여름철
유도탄
아테나
스토리지
알렉산드라
1689
##ological
밀양시
버려진
아미타여래
앞장서
떨어뜨리
괴팅겐
Dom
Foot
KM
Vo
app
낙원
누락
러더
리바이
린드
보사
사표
서상
석등
설사
셰이
슈가
식료
영연
요트
으라
익사
장현
전폭
절연
참호
코덱
타밀
토우
특혜
퍼레이드
퍼펙트
퍼블릭
페스트
프롬
##사우스
##13
##소득
##하나
##ja
보호구역
주둔지
레인지
돌아온다
상류층
실종자
크레이그
갑신정변
다카라즈카
Hard
Moon
im
part
가릴
결번
김호
김만
박희
배수량
생가
승패
신천
신익
실바
업소
에그
연필
율리
이공
잠복
중사
지기
친하
하향
핼리
##훈련
##yo
##산역
##주니어
##타라
##에어
##야구
##카레
##쿠치
##컴퓨터
##ality
제작소
213
##asc
표준시
가져와
노스케
##ize
스탠퍼드
스톤스
플레어
카롤링거
하비에르
카스트로
미성년자
##민정음
뇌졸중
칭기즈
교우
국채
녹스
디어
라부
명은
미팅
변제
빅토리
서라
선무
수유
아요
우메
유주
이레
임성
장타
쟁취
콩쿠르
타현
탐욕
포천시
##레토
##BN
##HT
##lam
##베이거스
알려졌으며
공기업
해양수산부
Cont
라스베이거스
PSP
쓰러지
무너뜨리
##ski
America
의금부
Bon
Far
RCA
노총
대면
맨틀
명회
뭔가
민권
반려
방조
벨로
봉승
부록
수륙
순사
시편
아구
영해
옥중
와트
우부
음란
일신
전횡
제이스
출소
퀘스트
패주
풋살
한진
휠체
##연화경
##ts
##당동
##더기
265
후쿠다
##tern
##노스케
갈라진
에르빈
라이프니츠
트럼펫
모하메드
브롱크스
최북단
휠체어
Cra
HIV
OR
dis
국자
나팔
나주시
낙농
낯선
노회
놓쳤
뉴사우스
데루
두만
로랑
명맥
부마
색인
섹터
소홀
수능
역습
정철
제향
좌찬성
좡족
처했
퍼거슨
프런트
훈민정음
##미치
##테리어
##웨일스
1620
자신감
262
##apt
Brit
스티븐스
프로토타입
트랜스포
호프만
초전도체
플뢰레
뉴사우스웨일스
Line
one
간편
구나
귀납
김부
남측
라몬
마포
마사카
문부
베레
보임
성희
스벤
신데
약어
연선
오퍼
율곡
차질
콜레스
페티
포워드
필로
항등
후생
휘그
##cc
##대왕
##스탕
##쇼프
1610
224
단체장
아시리아
해발고도
테레사
정말로
시크릿
정읍시
고흥군
Direct
EL
Human
Kar
VV
er
금광
나바라
난자
노시
담론
대파
들였
레게
마누
바크
박철
서훈
완행
윈스턴
자니
재가
카밀
파탄
##ful
##티드
##DR
##그란
##랭크
프리랜
아르테
##ident
차량기지
파이브
음식물
1775
안토니우스
나뭇잎
오클라호마
콜레스테롤
Cam
FN
TNA
각오
간청
곤도
남짓
니나
다원
대양
덩샤오
때리
보현
부응
불멸
석학
앞부분
옆구리
완충
전경
정운
진폭
청렴
친형
프시
##for
##사지
##노동
##식스
##시프
##증권
감독상
지난해
1788
가시광선
기동전
농경지
라치오주
애프터
거문고
우쓰노미야
덩샤오핑
Hello
걸릴
꽃받침
리카르
반가
보카
빌리지
성왕
시리우스
식년
애버
양준
오두
완장
원예
장진
주동
집약
창세기
칭다오
클론
펠레
푸앵
호우
호가
##보스
##던스
##돼지
고속철도
1817
부사관
발명가
상속인
이영호
전자기파
호위함
아이오딘
연해주
모티프
물병자리
Championship
NA
Ret
Vi
lib
강수
결점
광원
길가
넓혔
더구나
릴리스
모식
밤중
봐서
북조
불황
설법
스레드
연천
오성
장본
정순
종일
지크
테츠
틀림
편수
학비
핸들
##dy
##도어
##루트
##어내
##키메데스
##클랜드
##껍질
##icus
자연사
아르키메데스
문학사
문학가
밝혔으며
##ersion
1787
요코스카
합쳐진
정찰기
충실히
증손자
오와리
충선왕
LNG
ed
고타
괴산군
기만
기형
냉정
노무라
덴분
라운
로이스
마산시
부결
삼부
샬럿
수스
시동
양당
양공
에스터
연작
열반
절멸
주시
코베인
타국
폐단
표했
향로
혼슈
##wood
##27
##소시
##막염
문화원
타이밍
노동부
##irc
325
매일신보
Team
Who
이오시프
포터블
Smith
사모아
김제시
스텔라
코코넛
매트릭스
필살기
묘법연화경
무척추동물
chem
time
가위
고야
교두
군무
도감
독단
뒷날
랜더
리빙
무방
세차
아코
아의
원망
정파
정희
초능력
출진
투과
퍼부
한일
휘트니
##va
##하트
라이히
##une
1838
이제동
공포증
Space
진보당
수호이
프렌치
원통형
소프라노
##여지승람
new
걸즈
경직
니르
라데
베리아
볼륨
소경
수잔
슬라이드
아문
애너
어음
예견
웸블리
위아
이근
인테리어
척수
투고
피플
호송
혼용
회합
##uff
##GS
##내면
##조치
병원체
보였으며
char
카리브해
마애불
현무암
Under
캔터베리
MT
fe
we
구했
들러
마셨
만력
미카와
빈약
상주시
서하
신재
예리
요안
음수
이비
지남
지에
진안
치소
치앙
친숙
커맨
코러스
템포
헤딩
힐튼
##자재
##전동
##려야
##투사
##itor
생산물
교황령
디지몬
클라리
Pres
의석수
풀려나
기다렸
Sky
Last
OFC
Vict
pH
간간
강압
계략
과천
내쫓
단테
도독
비명
사구
세가
숙의
승천
신촌
웰링턴
융희
이숙
이스턴
제반
치이
쾌락
퍼플
##비우스
##프슨
##테른
##덜랜드
form
사회단체
275
인기가요
##ston
자주포
헤이세이
명명법
테러리스트
시마네
1680
유가족
관악구
type
간장
거물
기치
노년
누워
니즘
대검
도금
뜨겁
라코
만국
망상
매표
벤저
북단
분개
속박
스메
실습
업종
영하
영일
예천
외벽
전처
친절
킬로그램
타치
학점
##ration
##메이트
##병원
##장자
##벌린
제작비
경제력
인도인
플레이트
##나이더
에드워즈
그려졌
560
워싱턴주
랜드마크
동인도
트래픽
호쿠리쿠
Engine
아나키즘
사림파
##자동차
Entertain
벤저민
Disc
Mir
WK
dec
갑각
개회
고주
교위
극성
기함
럭키
망막
메트
버나드
본점
살레
성상
세브
세군다
속이
야로
열중
자급
철갑
코나미
탄원
풍토
한수
홍성군
흡혈
##테아
##타기
##장식
##컬럼비아
237
##acy
##스타파
메이어
자치령
플로이드
오가사와
모듈러
수성구
원더러스
조계종
밀레니엄
브리티시컬럼비아
오가사와라
long
mon
구식
김응
깔끔
로로
릭스
문공
바레
발부
방전
베일리
에이트
유린
주청
증직
티오
파샤
페라리
펜티
##버거
중국식
음악상
아르카
트리니티
수송기
알레산
장시간
History
어쨌든
신데렐라
펜티엄
Les
Mult
Master
RF
pla
가인
거장
관철
규소
달서구
도민
도식
독감
등대
레미
레디
레베
방수
북로
비닐
성범죄
신드
실드
아누
오거
윤석
이변
전각
주살
파벨
현안
회기
##td
##국민당
##파니
##마켓
##쿠로
독립성
244
229
야구팀
연주가
1780
트랜싯
생태학
미시시피주
하코다
문무왕
엄정화
레오나르도
Happ
Old
PH
set
견딜
계책
노팅
다뤄
대시
루지
면치
밀턴
사시
섬겼
에베
영재
유복
임팩트
잔당
전태
진법
타사
페퍼
한옥
##ih
##86
##기군
##평대군
##데사
##요크
경영진
##ept
1802
##라이언스
클리프
남겨진
레즈비언
주계열성
Business
생김새
EA
Found
Mal
OH
고어
구국
김소
도깨비
미쿠
바드
베텔
산탄
선방
셔먼
소단
슬롯
승소
알카
유약
일수록
자그레
정장
콕스
항저우
흑자
##바이크
##티나무
##타야
##조약
##리스토
기술력
1797
모아서
##ECT
밀려나
끊임없
Summer
Royal
자그레브
BP
Cast
Oh
VL
기틀
네온
노먼
농악
달래
담양군
데니
도합
드릴
방비
배합
보성군
상도
생부
소부
소드
숙고
순치
시로
쓸모
왜적
차리
체격
초조
촌락
타트
탄화
하체
황갈색
회중
##face
##gu
##길동
##러워
##활성
프로필
게임스
인터랙
노선도
에이미
몽골족
777
호르헤
아즈마
오렌지색
##ext
다름없
앞세워
루즈벨트
니케아
은평구
스트라스부르
Nav
gl
거창군
내사
노키아
단락
돈녕
리턴
린치
미구
서동
아쓰
아저
전황
정육
정설
정량
정과
주방
중문
질의
하토
항거
호라
화친
##연장
##fess
##day
##체인
##우며
##나물
##가쿠
##키르
##촌면
##emb
1603
흘러가
다케시
Ext
직선제
시라카와
아즈치
경작지
프레드릭
EMI
영암군
강우량
피드백
##슈타트
라그랑주
비로자나불
Corporation
프리랜서
Ka
Liv
XX
군용
누설
다롄
디랙
띈다
맛있
민의원
바예
바랐
박차
방계
번번
부역
비무장
색계
서둘러
송금
안트
음색
인장
저마
절도
주황색
증설
지망
찔러
차후
착오
키시
픽업
해면
핵미사일
##uit
##보냈
##대주의
##유기
##루시아
##EX
##북동
##셔스
##ato
전쟁터
마이니치
아닌지
번역가
세르비
##iph
Maria
주간지
##ucle
1827
1828
도요타
마인츠
오로라
휴양지
AEK
##ounc
곤살레스
문교부
Festival
에인절스
Bud
Fall
Id
Pier
갔으나
당도
레고
로워
밀착
뽑히
산현
섭씨
소감
속현
수전
얼라이언스
엘살바도르
원순
위클리
응고
의외
입교
장화
전극
참봉
컨소시
토구
혈연
##스테
##포화
##드릭
##wa
##루프
##농사
##슐린
##asy
##카이치
알렉산데르
서양식
게이머
블루투스
비서실
본다면
Again
스턴트
캔자스시티
원동력
유망주
아저씨
컨소시엄
Fred
Public
가석
갈비
결속
기라
달인
라테
리부
마로
마드
무학
스털
시메
신현
신변
엥겔
예제
용접
원거리
윤리학
입방
조산
진양
카쿠
홍주
효능
##YS
##플리
##카쿠
##극장
##샘프턴
시스템즈
파이썬
가져올
세례명
미소녀
모모야마
Hill
ass
감히
감속
기민
낙인
누명
도노
라피
랭스
레그
몰살
병리
볼가
봉천
성년
수생
수험
심층
심했
아령
염료
영흥
유품
이발
일광
재기
전법
지파
채운
총신
코흐
파니
파헤
팰리스
포사
필적
하대
학제
함안
헤아
##미분
##다코
##yan
##버린
##타바
##UL
##즈버그
##권법
305
공격력
슈퍼주니어
유리수
제이미
1614
드래건
후임자
CCTV
##보르기니
안재홍
관공서
Entertainment
KF
PV
느티나무
닭고기
떨치
람보르기니
분청
생후
소진
아퀴
우성
원세
위드
유람
이륙
전소
청조
초인
최재
케어
해일
##미나
##들랜드
##19
##권력
##젤란
304
라이터
403
베이컨
스트로스
정규군
요시노부
찾아갔
관측자
1604
학부모
아사쿠라
1644
exp
도봉구
보령시
프로테스탄
포인터
Band
Mob
도조
도리어
로자
막혀
배럴
범하
소현
스칼
심신
야오
엑스트라
윔블
유병
이을
이여
임지
임차
장부
지라
지루
코민
판교
황궁
회랑
휘두르
##rum
##바스
##바겐
##포도
##코어
##GE
##ature
군사령
안드레이
크리켓
콜로라도
News
목판본
로트링겐
셀레우
엠블럼
리저브
##다코타주
Ak
Bern
GE
Lond
NO
기물
김순
넘긴
로펌
베로나
보비
빠진다
에가와
여태
오정
오에
위선
윤봉
이프
접착
중흥
체이스
총동원
측도
판각
판독
포리
포프
피니
##의식
##enz
시켰으나
캐나다인
네덜란드인
평양직할시
1618
1624
구로구
##anna
해왕성
레오폴트
수류탄
TF
XML
가메
각인
고차
교신
그립
기류
만호
메우
모레
발화
백범
보궐
삼남
상작
서간
소변
수온
신예
연성
연개
오경
원치
이두
인피
조밀
창극
철광
철제
칼데라
키요
한산
희소
##min
##오스트
##계선
##성이
##더드
##백제
##궐선거
##lav
참가국
요시노
요시타카
##ube
사토시
천주교회
정반대
가선대부
재보궐선거
특공대
미완성
서보장
옵티머스
윔블던
##오스트레일리아
Bal
LL
Van
WH
경왕
공회
김택
꼭두
달팽이
몰렸
민병
분실
브리트
삼위
셀프
송광사
습기
시퀀
애도
연체
오피
울타리
워런
유장
유흥
인솔
인슐린
정토
조식
진관
처남
출근
타니
토후
팬덤
해왔
행법
##페라
##바야
##오버
##컨트리
##분별
##뿌리
##급수
##춘추
311
이끌어냈
파이낸
요시히로
클라우스
##ffect
피스톤
매개변수
떠올리
바꾼다
카세트
아오모리현
문하시중
스털링
Now
광합성
국물
대일
드나들
만과
뭉치
북진
불도
설날
성추
성직
성충
세일
숨졌
야인
외출
원뿔
위문
인맥
자상
지산
찬가
충숙
친동생
침전
피력
호몰로지
##box
##field
##정기
##퍼트
##네세
##럭스
##레이스
레이터
스포트
설계자
여겨져
아랍인
간행물
크로스컨트리
Brown
오쿠보
##그래프
체로키
에볼라
가석방
충숙왕
Nov
겸했
고즈
구급
꾸짖
다키
당간지
몰입
비장
손책
시어도
실격
알로
양시
영세
외전
입적
정구
투영
화의
환생
회생
힐스
##ror
##칼레
##메라
##월동
##룬디
##엄경
이탈리아인
316
서로마
##ume
베트남어
##rix
학년도
예비치
콘스탄틴
기울기
달려가
알레르
정선군
위스콘신주
당간지주
시어도어
Cre
Vir
sec
각계
구락부
근친
김남
낙향
도체
듀이
딸기
라나
맬컴
모셨
문답
본회의
분투
비안
상나라
성시
온양
와시
위엄
유황
이륜
인트
장엄
종택
중군
총합
탈바꿈
트립
펜스
한눈
헬라
힉스
##zi
##비오
##상가
##산염
##SA
##26
##29
##평가
##숭아
##롤터
회사법
##acter
베르너
거주민
스웨덴어
399
증명서
안타깝
그레이스
유키오
엄격히
예배당
안드레아스
##레르모
로망스
지브롤터
삼위일체
TP
간헐
고라
공구
귀퉁이
근거리
김좌
동과
마유
메사
반투
베인
비츠
사노
상쇄
성호
수완
알현
얼리
열등
잡종
적성
전군
질레
카도
퓨전
후량
##로메
##우병
##28
##하르
##를로
##플러스
##inn
다가가
중앙동
플레이스
지휘봉
번역본
귀족원
대륙군
아라카와
자라나
1825
거둔다
비대칭
레버쿠젠
어딘가
Bay
FX
HR
cor
간척
고단
구레
군현
남만
니제르
다부
도립
듀크
록맨
마라도
만지
명탐정
민코프스키
박은
반송
복고
비올라
사사키
상석
속임수
실물
야나
에리히
와다
외젠
유추
임영
장직
접대
칼날
케니
타계
터진
테너
판권
퍼드
행태
현자
##르템
##테크
##23
##화가
##퇴근
##조작
##저기
303
공격자
자연주의
대사성
어려우
체육회
전사자
##aka
세이버
아우디
1807
880
빠져나
패러데이
스러웠
손꼽힌다
전봉준
##르템베르크
Gala
LD
Lim
MI
net
결부
계면
광석
궁녀
내비
내과
닛코
대간
라비
미혼
반장
베드로
분립
산군
쓰시
안세이
알린
야르
양사
어퍼
와의
인더스
잉글리
작인
정랑
체스터
캐스
현악기
환호
효용
후두
##오피스
##와르
##웨시
##치카
##삼각형
이어질
차이나
Stev
##ember
발행인
테크닉
바티스타
아랫부분
날카롭
강동구
야마구치현
징병제
이야말로
술라웨시
Som
난방
남태평양
도당
법당
빙상
서영
수공업
슈바르
신창
아로
압승
약국
온전히
올바르
재량
출퇴근
커크
켈러
토레스
흘려
##구동
##쓰키
##elle
501
##urs
교통수단
마사코
재정부
다운타운
1829
부재자
공예품
수녀원
대마도
행방불명
Fried
변증법
후견인
MX
관사
괴테
노릇
데시
동결
라벤
마두
비슈
사중
석실
셰리
소국
알프
야후
양부
양방향
예카테
이가
정광
정열
주안
징후
최승
추도
치타
커비
통사
풍선
함양군
해달
허무
허셜
##난히
##BT
##혈병
##룸푸르
##BSD
완성도
보냈으며
나카지마
게이초
530
알아냈
포항제철
폴리네시아
1778
이시다
승부조작
CNN
괴롭히
대문자
Album
마틸다
트랜스포머
FL
QS
각서
격돌
고비
고다이
권선
다트
단념
뒤편
루앙
마장
만두
배재
선승
수개
안젤
잘츠부르크
참정권
코발트
태클
폐암
퓰리
항법
후학
훌린
##iro
##레알
##통감
##러니
##공원
##묘지
##종합
##입상
##hed
247
생산지
##idge
인사이드
하루카
하루히
전반전
다섯째
감염자
감염병
불법행위
좋아한다
1637
수호자
내보냈
London
Never
UI
거둬
남문
노역
눈앞
다나
두아
마더
만석
무릅
반칙
본가
살롱
서광
서킷
성유
소급
스매
심혈
월계
일람
일레븐
지낸다
청천
총상
특파
파올로
팬클럽
푸시
헤스
##비지
##무진
##암면
##ities
245
##use
off
##ote
##anger
화물선
1784
940
판타스틱
아르메니아인
피난민
광무제
광명시
##가르드
설리번
카리스마
비욘세
신익희
인터랙티브
AW
GUI
Tur
겸비
구어
노던
로메
마우리
부츠
북중
비고
상보
슈뢰
승화
심볼
어니스트
에렌
영창
예장
월리스
은총
지프
청해
토레
편도
합체
행했
호두
##정책
##포동
##태후
##영화
##워키
##텍스
대통령령
2600
바이런
보이저
여기저기
이사금
화학식
사회주의자
편집기
게이츠
보험료
##ender
저술가
스와프
세미놀
##ification
구마모토현
Apple
새천년민주당
두만강
북중미
Fa
Lev
MW
MK
Mount
OL
강기
다의
단양군
리누스
명실
밀워키
방직
백국
버몬트
봉토
상전
세그
아만
앤젤
였었
옐로
육류
천억
초각
칭한다
퍼진
해탈
홋스퍼
##레슈티
##런드
##아비
##호텔
##준호
##니히
##수사
##ating
전투력
중앙당
##amin
##rian
860
코르넬
##ulture
폭스바겐
##sych
미에현
타고난
콘셉트
성추행
Bob
Gh
Ltd
Sem
괴인
군소
노토
니컬
말뚝
매화
매겨
벌어져
본대
선군
앙코르
에리트
역적
옴니
유랑
육사
이다
정우
진남
친근
크래프트
##고백
##상부
##지움
##에다
##장성
236
마리우스
이스마일
개정판
신앙고백
999
받아들여졌
교섭단체
남양주
YTN
겸손
구워
글라스
남면
단련
대축
도트
도플러
뒤셀
따내
레딧
마름
매료
바뀔
발단
산토
생방송
유색
은닉
인턴
제스
케이지
쿼드
파면
파출
포메이션
포세이
힐러리
##무드
##모노
##가나
##해져
253
##reen
평양성
원작자
주택지
거듭제곱
Boys
가속도
오사무
브룩스
페미니즘
유위법
뒤셀도르프
포세이돈
Dance
Km
Kr
간통
계비
교각
구파
근해
금품
길쭉
동식물
막바지
반미
보답
봉사자
부룬디
속곡
송병
스팸
시술
여학교
영제
오드
우여
울진
유모
지세
차인
취락
태즈
티노
폐막
##win
##성사
##누이
##밍고
##왕국
한국은행
아니한
부대원
##rag
마리나
##베르데
마쓰다
일어났으며
1826
1770
흘러드
김종서
Adv
시에라리
법무법인
에치젠
Digital
푸앵카레
슈바르츠
퓰리처
시에라리온
NM
line
강민
견훤
김책
나크
냉장
느려
다짐
동역학
무마
배서
법학자
본진
불허
사철
서무
선교회
섹시
수기
암반
언약
에지
여종
이분
인덱스
조앤
초급
테베
팔레르모
펌웨어
하르트
할수록
홍진
활력
황조
훈구
##노지
##래곤
##폭스
기록물
조선어
##eld
007
프라이스
Princ
크리스토프
하마마쓰
Muse
줄리엣
카슈미르
옥개석
김나지움
DT
Karl
Mur
Us
UR
격분
고른
과업
기약
나자
넥슨
데릭
뒤지
무오
무적
박명
보주
송정
시랑
신수
쓰키
야노
에토
영천시
오마르
올린다
위니
재방송
참새
초거성
총관
코토
코칭
콥트
##토키
##코더
257
##ask
회의소
Stad
에스테
마사키
##ellow
##베르토
1811
NHL
사우스캐롤라이나
수산물
무너진
공모전
Swe
Queen
Journal
시마네현
프로테스탄트
Hor
Mu
Post
pop
건지
광개
궁금
남진
노획
도에이
루벤
비탈
삼매
아랑
애슐리
일례
자모
정약
천인
쿠키
헬멧
##자브
##틸렌
##아노
##HA
##시안
##현리
##펠트
프로스
##리스타
과학부
313
차이콥스키
세포질
##티아누스
510
헤르메스
히데키
모여들
1649
애틀랜틱
였음에도
확고히
##연구소
세그먼트
광개토
MG
Ta
노나라
노이즈
누벨
당부
랄프
레슬러
만인
목축
문란
벤자
본따
사네
사담
성급
애비
얽힌
여흥
역법
역무원
오동
외세
우동
우메다
유괴
윤선
이교
임해
정연
져야
조미
집게
차려
축약
카렌
코디
콜론
크누
펀자브
홍천군
##보전
##티르
##지우
##방식
##esc
출연진
##mph
##iana
1605
메모리얼
1398
Work
동인지
print
몰아넣
이범석
김덕령
디바이스
메콩강
러더퍼드
구지
급하
노블
놀랍
단풍
등각
부쿠
불태우
비오
빌럼
선산
소제
쌍방
인목
임업
채플린
처단
추앙
해충
##내려
##강도
##영향
프로페
독립당
스타스
열린집합
출발점
1590
1609
지급시
기울여
연수구
요크셔
합법화
모른다는
에마누엘
의용군
부쿠레슈티
Bi
Dark
Ho
ICA
RX
겉모습
김효
대례
돌진
러너
미용
버틀러
빙판
신간
실링
아센
완패
우참찬
체의
친필
해져서
후스
##스프
##렉트
##야식
한국예술
한국전력
머리장식
소유주
가져야
즉위년
이주한
붙여서
밀리언
대동강
토착민
에밀리아
휘발유
보호관찰
아칸소주
아세트산
호나우두
Football
교두보
알레르기
##종합학교
한국예술종합학교
AES
Right
sm
가만
기흥
드론
따를
떨어질
레몽
매크로
미화
미케
베니스
본드
비구
썸머
오언
오시마
유쾌
이신
이따
자위대
정미
중년
천성
청두
체온
포지
학식
회남
히우
##상도
##들인
##예보
##에즈
##어머니
##ould
243
285
기업체
득점자
Const
미나토
960
제이콥
말라위
사바나
앵글로
이데아
상록수
당분간
하코다테
930
MO
MLS
Rou
가평군
강탈
김신
난사
데포르
리놀
발루아
방형
빽빽
시녀
신디
신격
아밀
아픈
억지로
작화
장영
중창
집대성
철새
총명
최윤
텐트
특진
파가
##je
##곡절
##처분
##랄라
##헌대부
시간표
기관사
405
파이터스
생물체
1822
비상사태
동구권
spec
대역폭
Christmas
관람객
히메지
들어올렸
Sams
Cross
구례군
농어촌버스
김보름
August
장본인
MGM
개폐
껍데기
꾸려
남대문
레노
리호
미처
밀스
박격
사선
성신
안지
에워
오위
온게임
용법
이충
조봉
종용
찬반
카누
케토
코다
탈레반
패소
표류
합중국
##재기
##네즈
##터우
##조프
아이비
306
다카마쓰
남동구
680
1786
소방관
1823
교차점
파르티
1615
제후국
수감자
관습법
시라쿠사
NGO
마츠모토
##iction
부평구
갑각류
온게임넷
Fer
Fort
GC
UAE
경은
금당
낸시
네발
누아
니코스
미코토
번복
불선
불포화
빈혈
산사태
성역
실라
아라이
양왕
연제
원대
유유
유현
유례
익주
자가
쟁탈
절개
정혜
제천시
책상
칩셋
코노
키나
통학
호드
##란도
##지상
##임새
##경제
##게르
어린아이
##ransp
공학부
##바이러스
USD
1777
##onder
Johann
광산구
탐험대
Educ
더글라스
쫓겨났
창녕군
NXT
체임벌린
##elopment
##ouncil
코민테른
토후국
우여곡절
Data
Gro
IL
non
가평
고영
군역
금오
금방
노렸
눈길
눈금
래스
레진
맹자
병인
보일러
부령
비디아
사투리
상학
수월
순화
시보
약체
옹정제
음극
이극
익혔
전치
정한다
좌완
주루
충정
취역
크래
튀르
행주
##바트
##로리
##DC
##RA
##베스트
##중앙
##함대
프랑켄
작용소
남북한
415
1506
네이티브
1617
Management
말라리아
벗어났
세바스
대국민
Angel
가고시마현
다비트
맞물려
Social
Ast
GHz
Sir
간절
간담회
광천
기즈
냉방
도핑
들판
매운
봉산
성찰
속기
손잡
습작
신식
양기
양각
연접
지느러미
찬드라
청도군
칸토
코먼
키치
탄탄
프릴
항등식
홍건적
회송
##진법
##에타
##마침
##물질
대해선
중앙유럽
나가오카
대구시
더욱더
스크롤
##ERT
나가사키현
중성자별
EXO
불어넣
남해안
아뢰야식
홍백가
무릅쓰
데포르티보
각하
간극
광구
금하
덩치
도지
때마침
보타
샤먼
성혼
송준
쌍계사
아루
연나라
왕망
위급
음각
켤레
퀴어
투척
특산
폐비
폰티
핀다
한명
합세
화사
##넬라
그러다
254
273
##ots
혁명당
##ocal
은하수
1774
코르도바
1701
1567
발레리
고르바
배상금
맥도날드
전산망
김원봉
왈라비
무찌르
테크니컬
JS
Men
Nic
OEC
Pap
간택
강선
고질
금발
기로
남도
남강
라야
라키
머레이
밑부분
반유
방황
생육
솔리
쉬워
심취
엠파이어
외쳤
유타카
장택
지국
최단
치부
토막
함안군
혼수
홀랜드
휴고
##mar
##ko
##일라
조선족
1720
내려왔
파이퍼
스피어
1608
금메달리스트
학술원
동작구
쓰러졌
Anton
사육신
살라딘
프레데리크
아카이브
자존심
HK
Pass
RAM
UD
Vis
경국
다각
도저
레흐
로카
마운드
명망
벌리
부안군
사세
세세
양제
연례
왜소
우암
웨일즈
입선
저상
전영
지네
클립
하룻
햇볕
행각
##색슨
##cy
##태영
##아스
##스트로
1650
철도선
레이드
지하수
내려진
주제곡
케이시
dev
1762
영광군
고분자
COV
피에로
이방원
줄어드
에반스
파피루스
브리즈번
앵글로색슨
BJ
Emp
dep
경쾌
대연
레퍼
리티
마티아
문호
민첩
버림
복숭아
삼가
셜록
수표
신이치
아슈
옮길
원추
웨딩
은색
임치
제군
중경
추수
쿠프
크세
터뜨렸
편이
편차
하일
황룡
횃불
횡포
흑해
##무로
##ww
##민턴
##본다
##치니
시작점
States
마르코프
발사대
밝혀냈
PCI
안타까
Season
페라라
배드민턴
후시미
하룻밤
710
Fly
Lord
RFC
lb
pp
갑상
경공
고상
국권
노숙
눈동자
도맡
도함수
동리
막말
만루
매핑
반탁
백석
부치
분신
소하
수탈
시련
쌓이
악몽
에비
연혁
요사
용매
위화
유량
이스터
입힌
잠들
재거
종과
줘야
지안
직역
케네스
편평
풍화
해법
현내
형이상
혼재
후백제
훔치
##덕면
##메데
##KO
##놀드
##라이즈
민주자유
##ids
보호령
점령지
관광업
def
스파이크
넘어섰
주체사상
오타쿠
##스토크
안보리
org
마인드
가부장
스파이더맨
두터운
칠곡군
슬럼프
에메랄드
식료품
벤자민
고르바초프
민주자유당
UM
go
공위
긴꼬리
동주
라브
로미오
망하
묵살
백합
사춘
선주
소신
쉐보레
쌍극
썬더
아달
앙투안
야산
양주시
엄중
오현
존호
진평
충절
콘도
탈수소
팬텀
##vet
##디트
286
트리케라톱스
멕시코시티
스피릿
브리타니아
상륙작전
스탠더드
1660
1570
테레비
헤비급
ESP
HTTP
##거래소
적십자사
조그만
Der
Earth
MY
근소
노린
도면
동선
레브
마의
부토
선왕
속옷
수계
써야
악용
양질
오존
월등
인왕
장동
종반
진과
친교
쿠르트
특산물
황진
##den
##레마
##hr
##봉산
##쿼이
##튿날
##eta
자연히
다이너
내려지
보수파
수사관
##artment
Marie
순환선
##pha
설득력
불안감
에미상
Albert
다치바나
충무공
Two
중랑장
헐리우드
시퀀스
BA
Kiss
count
med
갈대
감영
과당
괴산
교점
김철
니노
라타
로스터
리스크
선적
선화
소의
송수
순절
스냅
신토
심도
아덴
알토
액정
야고
여순
열혈
원각
이튿날
저온
접견
제석
조안
차내
차일드
처해졌
태사
피코
필즈
함평
호부
흐루
히포
##nes
##보쿠
##니코
##학사
1050
##inary
보이콧
프리즘
못했으나
요시오
옮겨져
순서수
##ends
Def
리처즈
911
1648
하인츠
완벽히
글리코
동반자
수신기
하리마
Daniel
휘그당
레퍼토리
개천
단가
도총
랜스
리오스
면화
모계
민스크
박창
보소
사야
석물
식읍
신파
역인
영가
외양
용자
윤원
초나라
카구
쿠알라
툴루즈
판무
평온
플렉스
학무
행차
##mon
##less
##토닌
##SI
##언군
##타일
##ji
##좌상
아이패드
마르텔
아일랜드인
##스티누스
Inv
인조반정
610
스토크
Head
1758
매출액
에디터
다녀온
페르난데스
부딪혀
People
프레이저
바울로
동두천
가니메데
하이델베르크
수족관
위아래
셀레우코스
브리트니
쿠알라룸푸르
Pac
can
ma
over
갈레
금화
남학생
너구리
될지
문리
미그
배송
불발
소학
안국
야나기
장충
재킷
저고리
제논
청양
초본
최성
컴포
택했
퇴학
티어
풍미
퓨처스
허준
혜왕
##바위
##바니아
##군트
##그러
##소녀
##어놓
##젠더
##뭉치
부르군트
지배층
방문자
##ulus
전시실
수사학
에이로쿠
inc
펼쳐졌
Book
모음곡
뉴저지주
크롬웰
스노우
아이치현
테살로니
영연방
Samsung
OECD
Bor
Test
mus
가내
강태
계모
기복
김화
남명
네우스
놀란
누드
리암
멧돼지
산후
색슨
선풍
선착
신광
아헨
어근
어벤
역간
용담
우등
월미
유파
주원장
지났
진시
체구
총력
취입
코아
티타
파멸
표고
헌트
##하타
##샤르
##귀비
##ani
1450
구조대
670
미야코
Adam
과도기
파이어폭스
신약성경
Train
마라도나
620
HC
Ram
고졸
굴곡
궁도
금주
노히트
다진
대첩
돌방
람다
레위
리소스
멜리
번가
병부
불연
석좌
아방
역병
옥고
은언군
이서
입회
지의
차라리
카오스
탁발
하녀
헤럴드
활화산
황주
##사쿠
##기름
##문왕
##마에
1750
251
##rey
다이렉트
올라프
##cept
트레이시
여래좌
계몽주의
박지원
한림원
플러그인
페널티킥을
버펄로스
Special
Att
Ig
dist
계림
군포시
그걸
김익
내통
넓적
덕양
로도스
로지스
모면
뭉쳐
보크
볼턴
사공
속보
속출
수페르
아머
악한
이혜
장도
정할
제강
제청
지포스
팔달
퍼킨스
한상
회동
##ience
##정신
##파트라
##록스
##랴쿠
##마트
##야구장
##커버리
##저리
대한축구
##erc
241
수행원
찾아냈
마사히로
헝가리인
470
1613
1627
산화물
채권법
석불좌상
DMB
Micro
애리조나주
맞춤법
장덕수
산기슭
초음파
##stein
경순왕
플루오린화
눈부신
랭커스터
클레오파트라
사춘기
대한축구협회
Ur
kHz
sch
가노
난해
남위
납북
높일
라모
레니
마현
망설
명작
명료
무정
미뤄
버디
벌써
법대
봐도
부계
분동
새마을
성황
소각
슐레스
어가
엿보
옐친
윤지
이쿠
초구
타악기
피레
##체계
##무덤
##ville
##프레이즈
##하리
##마당
##너리
##넬리
알려준다
세기말
관리국
284
레이첼
이사벨라
베르겐
스코프
세웠으나
브리핑
1781
행렬식
가와치
강경파
명목상
미즈노
이세민
Soft
김홍집
퇴적물
노이만
심소법
극소수
정여립
패미컴
Hi
Want
will
가람
고품
고생물
더미
덴버
만행
바쁜
변명
산대
산양
서천군
성탄
셰프
수보
수모
순창
신증
아계
양광
예기
완강
우로
이권
장석
조짐
죄목
진무
집시
짝짓
키움
학관
함인
호스팅
##이동
##put
##콜라
##패닉
20100
248
다이요
이동식
히로히토
관측소
올렸으며
하드코어
합격자
##바라기
도전자
Health
align
##ACK
레지옹
트랜스젠더
히스패닉
const
불명확
Arts
스턴스
소시지
사쿠라이
페르미온
군자금
산청군
니가타현
오보에
##amily
POP
back
가파
감형
고금
구심
근심
더운
드레이
메노
물량
미쳐
반년
볼링
불우
빼내
샐러드
성안
쇼니
아론
안료
암술
우방
으라고
음계
짝사랑
창사
채찍
항암
헥사
##이츠
##슈바이크
##소송
##를린
##공격
사이키
서울역
음악인
258
라이즈
266
##utt
방어력
아무르
에드윈
모리슨
1782
롯데월드
달라질
브라운슈바이크
파울리
모니카
미하엘
매카시
공손찬
마땅히
의령군
울릉도
카보베르데
글리세롤
다기
두리
로베스
마미
말러
명기
무아
묶음
방파
베시
변태
부러
붙인다
서군
심복
앗딘
앤트
앨프리드
엑셀
온몸
울창
원환
위세
이응
이찬
일약
절기
접할
중류
진봉
최진
특검
풀타임
허니
헬레나
##즈베리
##클로
##뚜기
하나하나
##esis
아이다
비행단
집합체
등록금
아카시
396
청년단
지표면
연꽃무늬
끌어들여
Micros
재래식
커맨드
박격포
슐레스비히
로베스피에르
Council
Matt
Women
ev
kn
tw
가출
격노
경산시
궁핍
근절
끈질
낙관
네버
노우
대림
레슬리
루소
모기업
밀크
박병
방진
살린
세터
수니파
숨진
실화
앵무
양화
오귀
완봉
외야
우뚝
원류
인포
전업
정준
좌참찬
주둥이
창법
크론
표수
##바사
##미어
##자카
##베그
##PC
##치산
##방위
##관광
##itte
지원군
프리마
##ota
##unn
폴란드어
평화통일
훈련장
##iano
1785
스탠다드
1760
미쓰이
Scott
1582
1455
아오이
주자학
칼리파
청송군
Academy
Cy
Hand
Net
Roll
lo
공생
관인
구드
그라드
로토
로건
명승
무분별
보단
불의
브란트
블레이크
비비
산도
송영
시급
안현
애스턴
언양
엘렌
조예
청양군
카고
카게
킬리
텔로
파지
포티
해바라기
##연료
##pa
##버려
##성장
##키나파
##십리
##멘토
##럽트
##leg
부르키나파
다이애나
연기력
식물학
밝혀내
시행령
군주국
570
흘러들
1018
##ISC
1728
카트린
에미넴
나루토
서귀포
화엄경
후이족
구독자
에르난데스
부르키나파소
Bank
Econom
SAR
TL
가압
가등기
고레
관립
교상
구주
국판
나눗
마오리
모리오카
민스
뼈대
속명
수고
실레
연남
였으니
용두
용골
우문
육안
음성군
응축
임박
자파
잔재
적립
적시
조망
주둥
폐업
환각
##프셔
##렌츠
##카즈
##첼로
개인주의
아르마
409
323
통일부
스테로이드
소유스
야마노
고구마
코스닥
630
980
Conn
##에이터
수호신
구사론
색소폰
청량리
삼척시
데미지
박원순
네브래스카주
흥덕구
애호가
하토야마
파출소
장택상
나눗셈
Say
bre
검역
고귀
공론
그분
기무라
네프
도농
돌이
두목
랩퍼
릴리즈
무찔
미일
사돈
새만
수혜
승무
승탑
아포
양키
에일리
육영
익스트림
적시타
책자
최인
커밍
토번
푸트
##미츠
##oe
##가치
일반직
진행할
242
274
295
##ache
##르트르
스트롱
384
알렉시
전환점
이뤄져
느냐는
##rome
Organ
언더우드
##ences
SUV
McC
영산회
Secret
트렌드
총감독
파르티잔
새만금
Language
Sev
tra
고보
그쳐
나포
네빌
누비
눈썹
도가
리야
무량
밀수
볼라
삼도
서커스
스탬
애용
양복
영인
예테
의향
장손
재실
저빌
주니
중선거구
참관
처참
총탄
치를
카발
팀원
폴더
후카
##비시
##cript
##사촌
##시장
##열왕
##별초
##변사
##널리
##esh
지원병
돌아다
인도양
인터럽트
315
수행자
크리스티아
경영난
333
노르딕
발사기
세종실록
동남아
##ysis
무한히
테마파크
보상금
9000
##rict
가쓰라
카나리아
시리얼
허난성
나뭇가지
김연아
금정구
법상종
에나쓰
새마을호
예테보리
Bell
Call
Mass
Os
mult
ver
고메스
깔려
로잔
면도
바친
법흥
변위
상거래
소명
수론
엣지
여중
역관
울라
웨버
유표
유종
인동
장형
장명
정민
조진
주영
카제
크레인
타슈
폭설
회절
##로비치
##우마
##TL
##소총
##랜즈
##iger
드러낸
훈련소
케이티
##ogle
계산기
##ource
시킨다고
##ector
1607
일대기
Deut
아리안
##action
세워졌으며
아오야마
아폴론
DDR
Media
이방인
니코니코
하행선
메릴랜드주
주성분
오클라호마주
포츠머스
신해철
Control
쌍극자
Fut
고착
귀부
김무
꾸민
노령
도원
로직
망라
맞먹
명품
물산
미흡
백혈구
병세
비결
소켓
솔리드
쇄신
스물
왼발
의창
이창호
일축
임오
전립
치매
퀴리
테루
통수
하한
후각
##드랑이
##리기
##RS
##슈트
##은하
##덕사
##처치
인도주의
##chen
분류법
취임식
Inf
1572
억제제
##ideo
1413
플루트
춘추관
거북이
아이오와
불러일으키
아키타현
Know
안드로메다자리
중견수
수뇌부
Gal
aut
각막
공제
과대
교민
단추
랠리
레터
리포
반짝
발문
백혈병
병장
비웃
안도라
양치
엉뚱
오베르
옷감
원광
잉태
자일
재계약
저런
진안군
진핵생물
췌장
파급
파이트
회선
##CE
##코지
##노미
##츠만
##일점
##림리
그리피스
대표부
##itive
##irit
사라예보
##overn
해졌으며
장수군
감사원
876
유기물
1643
Maj
홀로코스트
시바타
에버턴
괴롭힘
경호원
Awards
발상지
와카야마현
당진시
도치기현
갑오개혁
귀여운
페드루
프로페셔널
송준길
Cle
bar
ser
vol
난중
노크
런닝
마일스
미시마
병참
비우
빌바오
상아
소조
수재
수자원
쑤이
안도
완치
잉어
저승
전능
주정
주례
직할
참으로
처우
초중
티비
파머
파섹
판화
한탄
함포
호메
후주
##ll
##sen
##gy
##시다
##환국
##궤도
##튠즈
아이튠즈
고려인
268
##ado
방어전
마사유키
카를루스
1759
스티븐슨
유배지
쓰러뜨리
오다큐
##ynam
파우스트
갈아탈
무자비
Standard
판문점
810
bit
거센
기절
대월
독학
말엽
메탄
무스타파
묵시
미달
방과
배심원
빗물
사문
세아
수납
식생
실비아
심경
에번스
예천군
오레
익룡
인스트
자영
진천군
쫓기
초선
캘빈
코메
키루스
태고
태실
태정
투라
플레인
행크
헬름
호종
호놀
##트리아
##와트
##덕리
##러햄
##달레나
##룰루
##이스터
지원금
269
특별상
402
거쳐야
광주군
런던탑
야마나시
전해진
##anda
황금기
알파인
펼쳐진다
공로상
클레르
1568
나선다
신비주의
법무관
분당구
바나흐
진사시
미노루
여고생
캐치프레이즈
접두사
여호와
Film
항공우주국
클라리넷
호메로스
호놀룰루
CI
rad
갇힌
검교
곁들여
교행
기려
나베
뉴펀
뉴햄
니더
대홍
대함
데크
명곡
못함
반다이
발데
밸런스
버금
본받
비버
비사
신춘
어댑
연전
옥천군
우분투
울진군
원구
찬송
출몰
칭하이
코뿔소
클락
파노
파블
파조
포물
한학
호에
회가
##aff
2030
##lease
299
승강기
의사당
요시쓰
히로유키
스피어스
이와타
소문자
1519
알레포
역전승
술탄국
##축구연맹
중생대
무색계
수페르리가
뉴펀들랜드
어댑터
From
객사
견과
꾀했
동질
리뉴
물방울
반혁명
사족
석축
수조
식수
악영향
어셈
원호
유임
인방
저압
조중
중진
참된
채웠
최국
치솟
화차
##지원군
##루이
##키치
##빌라
##첼리
인민지원군
##stic
##raft
351
스키장
국경선
양성소
헤이케
디스커버리
1707
1674
1740
경사면
다다요시
1536
도호부
한양대
몰려들
##anced
계엄령
에이브러햄
미추홀
이따금
Meg
MBA
Water
cur
각칙
공비
기쁘
남이
능률
뒤섞
법체계
복도
복건
사색
산학
섀도
석영
선한
쌓인
여제
우가
울림
울스턴
전연
정호
주법
증산
초이스
코팅
콤플렉스
피오르
했다
홍길동
후륜
흩어진
히라이
힘써
##mond
##cid
##도전
##po
##GN
##찰사
##게니
252
사업비
##ili
브라만
여행기
폭발력
1560
1492
증권거래소
##ENT
메디컬
히스파니아
신조어
경시청
이뤄지지
명부전
앨리슨
아쉬움
자부심
양천구
최충헌
성희롱
울스턴크래프트
Fi
Games
UH
fr
가칭
고명
곱하
내해
농심
데어
디제이
말투
메이드
모더니즘
무령
법주사
벨리즈
병약
수발
시파
신랑
에리크
외조부
우현
조그마
지멘스
징발
청서
체세포
총파
컬럼
키보
키라
통정대부
포클랜드
풀밭
풍력
한해서
할까
허수
##다라
##애자
##VF
##간드
293
문학부
개혁주의
335
##rie
폭발물
##BOL
618
말레이어
1772
으려면
1619
돌려보내
1469
여서는
Internet
성전환
벗어날
할지라도
맥도널드
마술사
Design
ONE
하남시
온건파
매리너스
조병옥
Times
김장생
슈바벤
도저히
COVID
형이상학
Low
UF
UFC
na
거둘
고윳
국조
남우
노자
닐스
떠오
반월
받쳐
번안
벌집
비각
빙그레
셀틱스
수제
순국
스무
역원
영내
원피스
웹스터
이더
일일
일요
정석
종성
지간
천호
태안군
피파
하네
해구
##비르스크
##티스트
##트린
##테리
##학동
##orum
308
##elt
스타워즈
부산물
407
가르친
오스카르
공작원
트라키아
징역형
실력자
무한도전
문인석
페루자
무라야마
아세안
Computer
전임자
cons
모셔져
스포르차
피어슨
총파업
고윳값
이더넷
Log
Sea
world
공범
기득
깨어나
꿀벌
돼야
두른
반디
비드
비가
사해
살포
상비
성결
소이
수세
쉬르
신보
십육
아톰
유마
적갈색
조운
조업
지마
천둥
천공
최명
치요
쾌적
편대
평산
하목
허시
화평
흑점
##ki
##AV
##테우스
##모비치
##블러
##게우스
위해선
1630
사이코
레이더스
돌아보
318
부산시
Deep
근본주의
Paris
강연회
TOUR
되돌아왔
Girls
오카야마현
초음속
중남부
안기부
유원지
선덕여왕
Museum
Java
Key
곡사
다드
대산
도일
루빈
머릿
멀린
미호
박혀
벌인다
분분
비누
세인
소독
순응
스탄
옹기
완도
요나
우의
우먼
음파
잠자리
장주
조원
종별
즉석
진통
차륜
태위
택배
튀김
티그
팔로
풍조
피했
항변
험프리
황국
효시
##비트
##대리
##부패
##워프
##엔드
##요리
##관총
##끄럽
##iti
272
달리기
357
크리스털
부정부패
오랜만
1601
1580
이와키
경사각
무용가
표지판
아즈텍
영남대
커스텀
노후화
아유타야
토바고
하세가와
프록시마
페데리코
Sand
SHO
bas
개구
게양
고루
국학
끝낸
녹훈
당구
등식
레코
로버스
리버스
면세
베넷
볼거리
부아
서화
소우
수미
수안
시연
시세
쓰쿠
에라스
오치
우레
원안
원어
유탄
유스케
이요
입석
전등
조아
질감
차녀
초토
카시오
캡콤
타개
피보
해식
혈청
환수
##rol
##oom
##com
##GL
##누키
##밍턴
타이타
데이먼
##urity
이동한
조건부
요시미쓰
크로노스
모리셔스
나카가와
진주성
870
결론지
붙잡혔
사로잡혀
Central
오키나와현
Beaut
오리건주
Mind
TW
act
cal
sur
간언
곰팡이
군장
날조
누릴
독보
문희
북문
뽑힌
산세
샤흐
손견
영공
예부
웅변
원경
이징
이젠
인화
주치
질타
초순
캐머
탄창
통가
파수
페놀
풍성
한기
호분
회자
##주제
##아과
##베를린
##장이
##시효
##걸스
아니한다
부분집합
279
##inger
아래층
##cht
Stage
Cha
Char
334
다리우스
불가침
그라나다
1612
어두워
데려오
하우젠
극락전
다이어그램
외래어
Philip
외손자
갤러거
특파원
JO
Ly
Son
갈루아
갑과
개역
고신
공진
굳건
그게
내밀
넥서스
디시
런타임
링고
마담
모지
성심
손오
슈만
스컬
신채
워프
유두
읍내
인부
재림
조훈
주동자
지으
최현
칼리스토
티라노
파치
펄프
포커스
허나
혼마루
화법
환공
흑태자
##자료
##문제
##몬테
##곰자리
연합체
##머니즘
우주국
다이라
##ument
크로네
소장품
후지타
편집국
플라워
1606
Prov
미야모토
1635
1545
가마터
1573
구매자
유력자
못한다는
호남선
우크라이나인
살펴볼
최신형
Only
로열스
피오나
아닐까
부조리
캐롤라
전교조
영락제
임실군
매표소
에리트레아
Education
반유대주의
Microsoft
Lar
Rom
Rod
굴뚝
낙점
남수단
넘쳐
노고
노런
녹지
당면
대식
대작
뒷부분
드가
메기
법화경
성하
손톱
쇼토쿠
스펠
스탭
시한
심재
아놀드
양털
에덴
이그
자회
재경기
저희
진자
체사
카톨릭
키는
타령
티탄
파월
##rick
##ni
##르겐
##보스토크
##스름
##LO
##평장사
##가이
##저트
##oli
나이토
베이더
사령탑
##istic
##elli
Mary
정복자
##ques
세자빈
무한대
수십만
푸른색
블라디보스토크
##sky
신의주
총영사관
일일이
pl
갈망
게코
고배
공언
난폭
뇌전
도운
루미
멈춰
목공
백남
변절
본위
사대
스베
슬라이더
아난
오펜
외직
워크스
이스타
입건
장방
재조
제복
질주
철십자
팩터
황무지
흐른
##ui
##gin
##비노
##da
##망원경
##적으로
##마어
##카시
##딩턴
##뉴얼
1530
353
분리주의
베르베르
야마자키
스피너
580
1594
수송선
##order
티베트족
##AND
기동성
페리클레스
상상력
마가렛
야전군
간사장
블레어
영월군
옥타브
장보고
부총재
Hans
Lady
mic
var
www
가극
결산
광진구
납득
당산
몰린
부스터
비춰
비활성
선량
선녀
세나
셰필드
속칭
앙카라
애쉬
어택
오션
외장
요일
유류
인내
자화
장공
정평
정간
제회
조강
조에쓰
진달
처자
천진
최동
출고
큼직
피델
해요
허균
회개
##ken
##hi
##원사
##출마
##각시
##청사
##춘다
##착륙
인구수
중심가
##ouch
##lection
국민은행
288
보인다고
베르가
해방전선
노스웨스트
전용선
1591
ICT
매장량
크로스오버
##프레임
거느린
1080
카트리지
구릉지
오세아
장흥군
코네티컷주
동호회
Sweet
GA
ll
걸림
기모노
낙후
농상
단언
도수
리허
머라이어
미연
바하마
변할
봉급
부득
분가
사타
상왕
쓰가
아수
앞섰
역경
웨스
위층
의열
저속
정창
종위
중임
증보
최창
터리
풀럼
황토
휴지
흥업
##유정
##라프
##pr
##포츠
##사항
##소프
##세서리
##UE
##델라
##왕묘
##밴드
##ices
##itude
형태소
관리법
능력자
사고방식
비행선
385
모리타니
김정희
하우스도르프
수집가
오카모토
840
김성근
프라이부르크
되돌리
칼리프
IPv
나미비아
행진곡
이고르
Anth
노보시
시발점
배트맨
퓰리처상
컴포넌트
아이오와주
Four
Hom
귀도
남대
노기
닥치
데라
도내
동강
락스
로더
목도
뮤즈
사저
승문
신오
양모
양해
어제
잠식
제패
제니스
짜여
청원군
탈북
판의금부사
피노
합한
##대상
##무사
##차크
##슈빌
277
레이철
마이너스
나오키
교통량
자동차도
추진력
338
라디오헤드
바르톨
중간자
345
485
마사토
668
살아온
제사장
위안스
정무직
시흥군
히타이트
루이지애나주
장신구
아킬레우스
에픽하이
의왕시
안달루시아
노보시비르스크
Est
가늠
강박
광릉
김미
꺼려
난바
동궁
드골
마는
말갈
방아
봄바
빌레
산국
소가
스팟
시디
신혼
아그리
영주시
왕전
윈저
재조합
정릉
졸라
진왕
초간
친위
크루스
패닉
편광
한두
핵연료
현세
황화
##bon
##ulat
##gar
##고원
##로움
##프리트
##차오
##사위
##하탄
##벌식
##뜨릴
##웰스
그리핀
287
후보자
목적물
비행대
style
490
990
동방신기
실업자
클로버
1694
지주회사
이복동생
art
로그인
코카서스
카디프
유희열
걸어서
Draw
자유민주연합
Happy
Foundation
베텔게우스
조훈현
If
NR
si
was
경리
경장
권했
급한
기오
동태
라만
문익
미도리
방목
배위
백마
셔터
시일
여류
완승
일절
전근
제미니
주종
쿼리
팬택
평영
풍산
하진
하청
한결
향유
홍영
##도치
##FF
##슈나
##테로
##덕동
##통신
##본주의
##청년
##lant
307
261
레이아웃
355
블랙번
레드불
##ATION
중력장
1764
Blood
France
통행료
미라클
저격수
침례교
프리스타일
리베라
model
피그미
미켈란
양준혁
알레산드로
Cas
HM
Rail
Russ
강북구
건기
고다
광기
교목
능히
마실
말레
명신
벤트
봉투
성삼문
셀틱
소추
스푸
알콜
암사
옥산
원외
작별
쥐아과
지리지
최정
캡슐
탈리아
펴낸
한시
후금
흑연
##ois
##들레
##다이스
##로빈
##타자
##플라
##링스
##콘티
따라야
자유주의자
프리덤
우주망원경
##osph
도로시
메이슨
3500
페르세우스
내려다
금지법
416
767
사마의
도와준다
유한회사
최우선
비스콘티
케이블카
애국심
외무대신
제곱근
아바타
무제한
테레지아
아우구스티누스
GPL
부딪히
목욕탕
월화드라마
스쿼드
현충원
요아힘
윤종신
슬퍼하
보은군
서라벌
조봉암
Hon
JA
Sar
TE
Wild
day
gu
검소
고슴
고릴라
공교
다졌
레자
루시아
류지
마세
마자르
막론
망토
미란다
배차
번진
불운
산개
송강
약재
오마이
유토
제호
조희
죽인다
테이트
포카
행상
행장
호군
화구
화천군
황우
희종
##ci
##오밍
##무역
##정지
##아보
##카날
##달라
##셀라
##멜로
##켄지
한국일보
328
야마시타
##ief
스티커
1504
플라잉
780
부지사
이와쿠라
기동대
군부인
##혁명당
이슬람교도
석불입상
자작곡
빈번히
위그노
드레스덴
광양시
아와지
파열음
쏟아져
알카에다
원세훈
탈북자
위안스카이
Ren
ge
관복
굽히
남침
내연
농노
대잠
레기
로아
마제
매점
민다
민시
박순
반자동
방편
배추
산초
상온
서도
석굴
슬라이
실형
엘레오
응집
인두
전령
접했
주빌
진척
챈들러
카브레
통설
트빌
페예
폴링
표범
플롯
##zer
##민관
##에나
##두스
##참모
##inae
##alt
문화부
국제기구
246
레이먼드
312
다이오드
##ader
종교인
메이크
올라간
324
정신병
움직였
상징물
394
##udio
581
니시노
Leon
1662
1651
인형극
김태원
옥스포드
##AFTA
에뮬레이터
고슴도치
트빌리시
BN
Tok
mat
rev
right
그친
닉네임
단총
닫혀
리포터
메흐
미제
밝힌다
북두
북청
비소
상술
성비
셀라
수없이
악사
재빠
주산
중주
진경
커튼
태원
퇴거
티토
티투스
포병대
하도
혈당
혜종
##티늄
##지도
##디크
##러움
##찰청
##복지부
존재감
계획안
조사단
##osition
지배인
##imal
선발전
스파크
001
트라우마
ISIL
사냥개
마주치
마스터스
콜롬비
지부장
시에나
GSL
상행선
심상정
인제군
의정서
당상관
##그림자
대검찰청
미켈란젤로
By
Kill
met
검문
공역
관보
군의
그야
급감
뉴타운
단숨
대권
동재
랑선
레토
로테르담
롬멜
막히
매너
문맹
비신
사복
사외
속인
수어
시나이
연경
오족
요란
육신
임재
진부
토종
패리시
프랫
한영
함축
화분
황희
##bc
##트론
##렌트
##사건
##책임
프로메
302
##isk
##itan
259
조직법
마르키
707
Program
730
군부대
1418
충성심
골프장
끌어내
이소룡
left
무안타
경의선
스테인리스
은밀히
불태워
관입암
근연종
리카르도
단숨에
More
OM
Plat
Squ
Take
Wall
가례
가처분
강정
검술
검단
곡성군
리니
맞선
묀헨
방역
보니파
사부로
서른
석장
선국
성행위
소대장
속죄
시무
실세
야유
야코프
용모
유향
응모
의탁
이춘
입혀
작아
주미
지렁이
초명
크리스트
킬링
태초
헬무트
휘장
##소수
##팔로
##글라트
도시락
276
인천시
야마나
슈퍼컴퓨터
이주해
412
건너온
불러오
1595
885
##ATE
갈라진다
소득세
와이오밍
느냐고
생겼으며
1553
모자라
process
ext
에릭슨
흔들림
체르노
구약성경
조슈아
이바라키현
사보이아
솔트레이크
묀헨글라트
묀헨글라트바흐
Dog
SIG
Town
data
가가와현
거침
거류
관부
교배
기내
나설
나요
나세르
둘렀
마린스
문의
벨라스
브렛
사량
숨지
실외
약관
양봉
어귀
연비
연면적
예민
이쪽
장막
장생
점막
정각
정액
종수
카불
화포
황기
흥천사
##무이
##와서
##음악
##곡사
나오미
##드리치
스포츠카
유사시
##ista
의료진
하드리아누스
에어백
1629
1583
1755
##ACE
관중석
1388
파트너십
발원문
응원가
Google
고령군
쓰촨성
태백시
컨셉트
Ern
스콜라
이니셜
과달카날
Jones
공문서
Austral
김택용
크누트
Ah
Dar
JK
TD
mag
감로
강론
경서
군제
기선
김안
내선
단파
도인
루체
링네임
무례
물망
보가
빈부
사별
산발
성토
소연
씌워
알선
알버트
약초
의안
장계
제레미
첨탑
폐포
폐선
헤어지
호도
횡성군
##체육
##yes
##디비시
##노비치
##신산
##징금
##카쓰
미국식
##icle
데이비
##rog
나이키
##rab
유리창
376
이집트인
에드거
551
Inn
헤르츠
사마르
1757
PSV
드리블
베니토
Songs
지요다
오리엔트
에레디비시
덕수궁
덕흥대원군
드래건스
잉글리시
사우스캐롤라이나주
리허설
830
Code
가비
강계
게스
고쿠라
교세
구기
기입
뜻밖
로테이션
마니아
말살
몸값
법의
봉선
비티
비너스
빗대
사재
사경
샤토
석관
얽혀
에이드
엘레나
연변
원초
육조
윤용
이음
절지
점근
주고쿠
질산
채드
충적
탐라
토큰
통째
페소
폴드
하숙
해답
허벅
헨더슨
흑룡
흥국
히든
##텐디크
##HL
##경사
##롭스크
##ination
1520
정치범
기술원
출신자
정의역
태양풍
상당구
자본금
555
Marc
731
이시이
레오니
이수영
조언자
에디슨
Barb
그로텐디크
분당선
간선도로
톱니바퀴
Alexander
KAIST
VfB
셀룰로스
달마티아
고품질
손오공
BE
BGM
PT
거동
기쿠치
노섬
단성
대자
두건
뒤쥐
로터리
미이
바를
백기
부로
불공
비파
비관
샤리
석고
성주군
쇼가쿠
알릴
알타이
올랜
용강
용호
웨이드
웨이크
은유
이바르
절실
종시
최연
카베
퇴단
포우
포용
호구
##레흐트
##지방
##추리
##군주제
##예스
##서관
##시리
1420
감독관
태어난다
상대편
관리인
271
오스본
생명력
375
남북국
413
##스티스
아우렐
475
시킨다면
넘어선
이기붕
1602
1632
칼리닌
Orig
매개체
LPL
긴장감
부적합
베니테스
English
성악가
세레소
연금술사
버펄로
다방면
아퀴나스
Ball
Gard
Wa
가용
갈매기
곧장
권상
누출
다로
다뤘
달빛
라싸
련합
루주
마젤란
묻힌
부주석
비변사
삼보
성군
시전
시치
심청
악행
연원
의관
이휘
자퇴
재치
조프
중턱
찍혀
참지
카가
쿠즈
크렘
탈영
터져
폐색
포이
행의
휴스
##아먹
##모델
##마리아
##리아나
바이크
평가전
##idth
내려놓
오르티스
##aph
신경망
공급원
이승훈
아라시
헤이시
고용주
Dead
대공포
##INE
문하생
##아지에
제트기
##ruction
끌려갔
라디에이터
가창력
Every
중등학교
스플릿
따돌림
콜라보레이션
이로쿼이
라부아지에
그야말로
올랜도
고뇌
기강
남연
노장
농수
단바
두들
레우
모성
무반
민제
바루
법사
붓다
사천시
상봉
압수수
야사
양립
염오
예쁜
위정
유코
인버터
잠금
전상
찬미
탱화
투나
펴냈
호시노
##티엔
##사무소
##ICA
##강원
##케인
사용법
시스터
고속철
바르바로
inf
마쓰마에
소화기
Seoul
샤를로트
아바스
괴로움
오두막
코먼웰스
흐루쇼프
압수수색
Field
Jer
Jim
JYP
MF
MIM
rd
관작
군내
기꺼
난부
납세
넉넉
늦추
대미
대호
더그
더듬
룬드
마샬
매국
무코
발차
밧줄
북주
상군
수에즈
시화
신나
아길
연명
염원
용화
위서
잡이
재적
정영
제과
주박
지즈
책판
총칙
측실
커진다
쾌거
키케
학예
혜공
후국
##nam
##vin
##well
##루가
##총사
따라잡
##레이저
라이징
최고점
292
이동해
스트립
해군기지
안드레스
운전사
신뢰도
가와카미
Temp
##레인지
1670
복사본
탐지기
기요모리
Peace
불신임
황소자리
Point
고스란히
베아트
전륜구동
가만히
가파른
오세아니아
Non
OO
Wood
경정
공집합
금과
노려
마노
매상
메소드
메구미
무연
민트
밤낮
빈스
사멸
산전
산천
상형
소다
수달
순진
순방
에콜
역수
영안
예니
왕사
우량
윤정
으신
음정
인노
장연
장한
장성군
재통일
저소득
정묘
집요
창호
체이
측선
캘러
크립
타바
페름
평시
헌병대
##이익
##사람
##당서
##현면
##더미
##헤르
309
사실주의
졸업식
다이라노
327
확장팩
원자량
808
미술사
346
핀란드어
달라졌
1640
재건축
1585
1456
1494
레지스탕
스케이프
고조부
카탈로그
Magic
Development
##duct
위트레흐트
국세청
돌핀스
어쩌면
엥겔스
파이낸셜
캐머런
레지스탕스
Fant
KV
tri
감바
관박쥐
글쓰기
금석
난류
다득점
답습
도의
로비치
르망
멸시
목련
백양
범종
벤투
브라이
상량
소품
수트
수포
액자
엄호
워크래프트
유조
윤일
의기
장재
재키
쟁이
전람회
조속
졸리
종회
주현
준용
진산
천보
칵테일
코비
코피
터졌
펩타이드
피폐
허스트
헌팅
협찬
호성
홍가
후나
히키
##로호
##나귀
##구로
##틀린
##숭록대부
##링기아
발표회
현대그룹
오스트로
대하드라마
에스테르
동부승지
기계식
##iful
Thr
카르타
아나스타
알아볼
740
1779
나갔으며
리버티
경전선
1756
Box
비스듬
쓰였으며
영양분
블록체인
1555
Edition
연수원
처녀자리
##대장경
왼손잡이
기차역
add
케인스
리에주
소작농
로타링기아
히치콕
NCA
PO
Rub
ca
equ
ve
각주
과립
권기
귀의
기예
기화
내년
내심
다산
더더
방벽
분구
비노
빨치산
뽑아내
선의
섭동
아가미
알자
알스
애착
양민
양말
왜관
이티
조음
좌안
중정
태인
텔아비
토치
투리
프티
핸콕
호안
호앙
휴즈
히파르
##kin
##RAM
##디시
##천후
##즈윅
##킹엄
##뎅이
이용해
교육법
##니아주
자유로이
##osoph
나이다
마르스
카이퍼
Alf
모리타
아라키
525
플라멩
주택가
760
##메이커
일러스트레이터
소시에
이홍장
Division
한라산
에히메현
텔아비브
히파르코스
GH
Iv
public
건재
건반
교조
그라스
김근
나그
낙성
내뿜
내슈빌
다라니
대모
덴무
루브
룰라
마커스
목초
무모
민수
백련
비와
삼지
상복
서부터
스톱
습한
싸여
알림
야영
얽매
열병
유허
의전
일깨
젊음
줄인
치프
카포
코친
평단
항고
허적
협공
##bs
##rary
##레즈
##부쿠로
##풍군
##RO
##판윤
##하치
##즈다
한국학
##시아스
아이러니
267
가리킬
##rot
전통문화
스트링
표준궤
요시노리
프레시
아카드
##ogen
후쿠치
Information
수출입
헨리크
##ERS
##ASH
1616
디아블로
밀려났
동북아
콜로니
SMAP
##ICE
쓰러진
플레밍
한성부판윤
피에몬테
인문주의
제물포
봉화군
group
헤로데
캐피탈
트레일러
퀘이사
Friedrich
테살로니키
BEST
Rose
Ven
가운
건원
검투사
괴담
구력
군공
굴리
농약
니우
다인
다거나
덮인
도니
동광
료마
루디
르베그
매클
머지
묵인
미마
박문
반그림자
백금
본뜬
사브르
상공업
스캐
시해
양양군
언행
외피
요요
용납
유송
을미사
이과
이괄
작은
장호
정방
조도
참회
초승
치바
캘리
클로스
터전
테라스
틀린
페아노
풍물
효행
후아
##디브
##키오
##물관
##롭스
이나바
전체주의
마이티
Stra
스테드
사진가
미술품
협력자
스키피오
고전주의
대학원생
There
전용도로
집행부
보건복지부
동해안
1683
고위급
우에다
수산화
대동맥
아담스
반역자
TCP
세무서
Break
휘말리
은신처
포츠담
장준하
히나타
만리장성
저마다
분청사기
꼭두각시
정약용
기꺼이
을미사변
Hu
His
Wolf
가다
교습
구포
굳혔
근현
기제
나경
논어
뇌터
디나르
묘청
물음
반부
배격
불기
비겼
뽑혀
삼총사
성좌
시터
식초
악수
알란
우고
음대
익혀
주서
지낼
채식
침실
카간
코보
탈라
탑비
태프트
판시
펠라
편마
한용
후천
##ulation
##실바니아
##추얼
##록색
##타루
##데나
##알데하이드
##atory
사업장
레이지
406
##iva
정규직
361
##ogn
보병대
코스모스
Spe
그레그
1645
1659
되돌아가
1745
남해고속도로
##ergy
해운대구
수필가
브레이커
트란실바니아
완산구
네바다주
선착장
쇼가쿠칸
Cop
Mas
꼽혔
남제
다정
뒷산
마호
만을
만회
맞아들
몰디브
바바라
배움
법치
비에
빠짐
삼별초
수르
알츠
양승
에러
염분
오소
윈체스터
유난히
일문
일찌
임직
절댓값
진중
청혼
촉탁
타자기
퇴폐
특무
후연
흩어지
힐데
##도토스
##누르
1550
##ats
##etic
##osis
사라왁
오른팔
398
425
Ins
Come
천연두
공로자
1589
클로즈
동지중추부사
1718
상무위원
동래구
발트해
Asia
구치소
서바이버
브래드퍼드
휘말려
군마현
통감부
##엽수림
지치부
대방광
서강대
Pierre
콜로라도주
신간회
관입암체
체르노빌
알츠하이머
Clar
Final
Hell
Tre
가트
기문
끊기
돈다
돌린
등부
레시
문동
물어
미티
바누아
병설
보필
봉행
비나
서대
선망
선덜랜드
설파
순결
스이
시들
안영
알류
열녀
오무
오군
오너
와우
완구
외측
웅천
적기
전가
전편
질책
차고
찰나
캐넌
코브라
킹스턴
토속
통한다
필러
홀란트
화단
후송
흑기군
##ria
##고르
##바니
##oi
##vir
##루치
##와프
##키리
##글로빈
##총통
관리원
국민정부
자연환경
나이츠
전해질
문화재청
428
##ourt
구속력
1703
1646
Prince
동화사
영양소
타카시
구리시
##ycl
Commission
콜레라
나아갔
산호초
오디세이
신대륙
철자법
저당권
마수드
철광석
에일리언
소시에다드
920
Here
LE
ep
est
강신
계위
고이치
공여
광운
굴지
길잡이
나돌
루치아
리쿠
메이스
몬티
미적분
볼프스
비운
서이
수탁
시복
식욕
양안
어법
연두
오송
원부
을과
전생
조피
직급
차갑
참나무
챕터
청국
크랭크
탱고
토네이
하북
한식
함평군
##연사
##지드
##라덴
##토니오
##SPA
##사사
##쿠프
##개구리
##딩거
문화상
289
바이너리
연합뉴스
현대사
아르투
올라서
321
##ocol
##una
여행객
마쓰야마
대장균
알려졌으나
##erty
그라프
918
1621
1622
1584
Add
PDF
싸웠으나
부시장
Jeff
##PGA
문경시
비토리오
최용건
청계천
마태오
독립선언서
오랑캐
김좌진
덕양구
신채호
초승달
볼프스부르크
토네이도
FE
JD
WS
XL
factor
high
text
void
각급
간경
겐신
근신
놀랐
니어
당직
당나귀
도킹
동평
롱스트리트
박노
벌목
봉신
브레스
샐리
수운
시럽
씨방
약소
어구
에브
예스
워렌
이왕
적위
전초
전패
조양
주형
체신
초성
쿠도
타결
태산
튀링겐
팬터
편년
하양
하퍼
회심
히에
##린트
##티콘
##후미
##테리오
##가드
##막이
##규어
##험자
##렁크
최고봉
지휘부
에너지원
##opter
##라인베스트
907
후쿠야마
카메오
브레스트
화산재
WWF
970
1661
크라쿠프
수산업
1527
교과목
미네랄
발원지
휴식기
개헌안
클라우디우스
네모난
찌르레기
코린토스
노르트라인베스트
동급생
직제학
조만식
연개소문
예카테리나
판무관
노르트라인베스트팔렌
NF
국원
김자
난소
너바나
도프
딱정
바벨
배선
사암
사라이
서포
석주
속속
수형
시프트
신심
암행
앙헬
어색
연군
영통
육로
은진
인양
자자
제럴드
첨사
치켜
치타스
친부
파베
표식
합해
형평
홍종
히젠
히카리
##이시
##노신
##노헤
##시기
##복야
올림푸스
형태학
##rod
314
Steph
마르코스
요시키
금지령
세르히
ins
장기하
Alt
동음이의어
올렸으나
Anal
소방본부
일으켰으며
대리청정
동해시
this
1688
1526
##IDS
들어온다
스러움
와일드카드
코사인
비엔날레
MMOR
마테오
슈테판
Office
루도비
돗토리현
호치민
최규하
이와테현
진달래
승문원
Ash
Form
ZARD
ent
가꾸
경운
고심
꾸란
낙마
남정
내건
노반
뒤쫓
매혹
번트
불국사
소호
수세기
스목
십시오
싸운다
안사
엔리코
이무
이코스
자구
조일
쥐라기
질식
청백
체벌
초라
초속
치욕
코타
코즈
탁자
포경
피격
하바
하이트
헤모
협궤
혼성
화질
##bus
##lu
##gg
##레로
##라우
##틸라
##시니
##뱅이
##접원
사이고
##ici
278
##urt
다이어트
##ading
도로망
Stan
설계도
414
보냈으나
세이프
몽골어
Death
유행어
무용수
정밀도
쫓겨난
적당히
트로이아
게리온
올림피아드
로페즈
뉴멕시코주
금천구
##지상주의
딱정벌레
BK
Base
Ki
Lake
RB
elect
공허
국책
군신
기력
난수
다도
단부
대야
데프
라켓
명랑
몸소
방산
봉양
상좌
상냥
섬진
소성
시지
어차
에일
원회
일전
일격
장문
정윤
제라드
참파
체액
토가
통달
트렁크
특질
헤밍
##bi
##aft
##cal
##티니
##스만
##아데스
##절제사
##울림
##돋움
일본화물
아이누
이상재
317
theory
물리량
포르쉐
하이라이트
삼성그룹
645
오토마타
주전자
765
리처드슨
1540
고위직
조리법
태권도
Georg
페니키아
덮개돌
KeSPA
poem
히다카
애기박쥐
아드리안
노량진
핼리팩스
ICAO
바르바로사
Lor
Rog
Side
love
감도
고음
구균
구덩이
극회
기우
낭트
내력
니야
데바
리리
면책
미우
발하
백설
본연
볼츠만
분국
분묘
비음
사에
세이지
시추
실학
쏟아지
아롱
액세서리
에라
왔었
위인
유경
작정
장마
재촉
적국
좌초
중련
창춘
청담
춘분
티크
파평
파마
팍스
판과
팽팽
평점
핀치
협소
##페어
##ced
##들린
##SQL
##호쿠
##게티
##삼국
##분수
294
298
##린다는
페르마
개혁가
하이데
정상부
343
아우크스
보급품
웨스트버지
각본상
사마소
1768
아프간
돌려받
1467
배웠으며
중시조
필라멘트
로고스
TOK
어울려
몰아냈
이케부쿠로
MBN
구한말
순례자
##클레어
Studio
플랑크톤
휘트먼
보천보
일본화물철도
아우크스부르크
Sin
Wi
ap
강림
결석
겸한
곡률
대격
막심
밀직
방광
벌거
별시
복당
부총장
섞이
소고
쇼헤이
스필
시황제
식단
신서
아네
액면
오븐
올가
완고
육계
융성
임페
정안
존스턴
질수록
집산
체형
코볼
튜더
편미분
평장사
푸리
피쉬
한발
혼간지
황인
##col
##마레
##팔트
1730
##ication
문제삼
자유자재
브라흐
진출권
다이시
마르타
China
하이난
파이크
사라센
트리톤
슈퍼맨
번호판
##thur
##소년단
##iance
요한네스
갈라졌
수리남
1588
##awa
정류소
마그나
회색빛
1415
우익수
장성택
제네시스
시그널
Broad
신생아
##helm
Indust
Days
약사여래
가중치
소인수
다이나믹
탄화수소
티라노사우루스
민다나오
키케로
910
red
갖췄
갤리
고케
권태
귀한
남오세
랜돌프
럼블
록펠러
모회사
발돋움
보덕
분모
빼어난
사오
사액
성한
속어
수체
스스
신태
신권
암세포
오더
왕도
외르
임했
정위
지와
찬란
충만
카펜
킵차크
투성이
파도바
파킨슨
합주
해파리
화족
휴학
##스쿠
##MO
##디니
##노트
##수트
##투리아스
##젠테이션
##셔츠
##펄스
##oni
한국사
##리스크
데이지
지나간
문학관
##ages
##스턴트
451
아일랜드어
##스카야
공급자
424
##iforn
암살자
아스투리아스
파라다이스
달라붙
Heaven
1611
1721
1735
퍼져나갔
과수원
평신도
수개월
남오세티야
TTC
강재
그르
김중
꽃가루
난항
다미
대곡
데파르
뒷다리
렉터
류성
면회
모유
미남
민란
바란
박선
배스
백서
벌일
본떠
비견
산부
생디
생강
서포트
소묘
쇠락
스오
염전
옥구
외대
위르겐
유속
일소
장량
전우
제전
주희
직영
창제
추돌
퍼블리
폭락
해골
헤어진
현주
##르담
##ces
##자매
##런즈윅
##려고
##코이
##떡잎
##교사
##장치
##삼동
##요스
##델리
일본서기
프로비
297
현대식
부산항
FIBA
스포글리
##ema
##iae
파이리
요시모토
요시히사
법률가
슈퍼마켓
##istry
엘리사
다카다
431
Three
1596
공화제
아사노
일으켰으나
이자겸
1642
1626
막대기
노트르담
구사쓰
Johnson
##azz
월간지
김재규
수군절도사
Suica
시가현
라그나
수목원
대덕구
아흐마드
줄어든다
페미니스트
중남미
행선지
사다리꼴
Concert
고케닌
Got
Ring
cr
self
감귤
게인
고선
남코
너클
네로
다뉴
던스
뒤떨
딱히
라구
레조
말린스
모독
목수
미비
반다
부경
브로스
사포
사타케
산로
서현
속리
송곳
순열
시프
신평
신랄
아전
어순
어용
역내
유스티
유카리
은화
천민
총열
최병
출하
클랩
파로
파스타
피피
형세
혼례
##창동
##고에
##vers
##유리
##전서
##사토
##예비치
##혜진
##배상
##배추
##귀족
##시드
##게일
축구장
##roph
전문지
사무처
359
##스코프
##ager